{
  "vocab_size": 8000,
  "token_to_id": {
    "<pad>": 0,
    "<bos>": 1,
    "<eos>": 2,
    "<unk>": 3,
    "C": 4,
    "H": 5,
    "I": 6,
    "S": 7,
    "W": 8,
    "K": 9,
    "</w>": 10,
    "P": 11,
    "R": 12,
    "E": 13,
    ":": 14,
    "-": 15,
    "A": 16,
    "L": 17,
    "T": 18,
    "N": 19,
    "G": 20,
    "M": 21,
    "D": 22,
    "O": 23,
    ".": 24,
    "_": 25,
    "a": 26,
    "l": 27,
    "t": 28,
    "h": 29,
    "i": 30,
    "m": 31,
    "n": 32,
    "s": 33,
    "o": 34,
    "e": 35,
    "w": 36,
    "r": 37,
    "f": 38,
    "d": 39,
    "j": 40,
    "u": 41,
    "c": 42,
    "b": 43,
    "\u201c": 44,
    "v": 45,
    "g": 46,
    "y": 47,
    "\u201d": 48,
    "p": 49,
    "k": 50,
    ";": 51,
    ",": 52,
    "q": 53,
    "J": 54,
    "x": 55,
    "F": 56,
    "(": 57,
    ")": 58,
    "B": 59,
    "\u2019": 60,
    "1": 61,
    "7": 62,
    "9": 63,
    "6": 64,
    "8": 65,
    "3": 66,
    "\u00e9": 67,
    "\u00e2": 68,
    "z": 69,
    "Y": 70,
    "?": 71,
    "V": 72,
    "5": 73,
    "0": 74,
    "2": 75,
    "4": 76,
    "!": 77,
    "U": 78,
    "[": 79,
    "]": 80,
    "\u2018": 81,
    "\u00ea": 82,
    "\u00e0": 83,
    "/": 84,
    "*": 85,
    "\u0153": 86,
    "\u2014": 87,
    "\u2122": 88,
    "Z": 89,
    "\u00f9": 90,
    "Q": 91,
    "'": 92,
    "\u00e6": 93,
    "\u00f4": 94,
    "\u00e8": 95,
    "X": 96,
    "&": 97,
    "\u00a3": 98,
    "\u00bd": 99,
    "$": 100,
    "\u00f3": 101,
    "\u00e7": 102,
    "\u00ab": 103,
    "\u00bb": 104,
    "\u00e1": 105,
    "\u00ee": 106,
    "\u00ed": 107,
    "\u0141": 108,
    "\u015b": 109,
    "\u00ef": 110,
    "\u017b": 111,
    "\u10da": 112,
    "\u10d0": 113,
    "\u10e1": 114,
    "\u00c9": 115,
    "\u2013": 116,
    "\u00c8": 117,
    "\u00d9": 118,
    "\u00ca": 119,
    "\u00c0": 120,
    "\u00db": 121,
    "\u00fb": 122,
    "\u00b0": 123,
    "\u2026": 124,
    "\u00eb": 125,
    "\u00fc": 126,
    "\u00f1": 127,
    "\u00c7": 128,
    "\u00ba": 129,
    "\u00d4": 130,
    "\u00ce": 131,
    "\u00f6": 132,
    "\u00c2": 133,
    "\u03c3": 134,
    "\u03b5": 135,
    "\u03bb": 136,
    "\u1f21": 137,
    "\u03bd": 138,
    "\u03b7": 139,
    "\u03b3": 140,
    "\u03b1": 141,
    "\u03c7": 142,
    "\u03c4": 143,
    "\u03bf": 144,
    "\u03c2": 145,
    "\\": 146,
    "+": 147,
    "e</w>": 148,
    "s</w>": 149,
    "t</w>": 150,
    ",</w>": 151,
    "en": 152,
    "th": 153,
    "an": 154,
    "er": 155,
    "in": 156,
    "on": 157,
    "ou": 158,
    "d</w>": 159,
    "ai": 160,
    "re": 161,
    ".</w>": 162,
    "a</w>": 163,
    "ar": 164,
    "qu": 165,
    "es</w>": 166,
    "or": 167,
    "y</w>": 168,
    "the</w>": 169,
    "de</w>": 170,
    "il": 171,
    "es": 172,
    "le</w>": 173,
    "o</w>": 174,
    "er</w>": 175,
    "al": 176,
    "ur": 177,
    "un": 178,
    "f</w>": 179,
    "om": 180,
    "ch": 181,
    "on</w>": 182,
    "el": 183,
    "ti": 184,
    "ing": 185,
    "and</w>": 186,
    "ed</w>": 187,
    "e,</w>": 188,
    "tr": 189,
    "is": 190,
    "is</w>": 191,
    "et</w>": 192,
    "ait</w>": 193,
    "of</w>": 194,
    "ent</w>": 195,
    "av": 196,
    "it": 197,
    "as</w>": 198,
    "en</w>": 199,
    "au": 200,
    "em": 201,
    "to</w>": 202,
    "at</w>": 203,
    "la</w>": 204,
    "ing</w>": 205,
    "i</w>": 206,
    "\u00e0</w>": 207,
    "in</w>": 208,
    "as": 209,
    "pr": 210,
    "it</w>": 211,
    "our": 212,
    "s,</w>": 213,
    "at": 214,
    "ir": 215,
    ";</w>": 216,
    "le": 217,
    "eu": 218,
    "me</w>": 219,
    "ce</w>": 220,
    "wh": 221,
    "l</w>": 222,
    "ous</w>": 223,
    "t,</w>": 224,
    "que</w>": 225,
    "les</w>": 226,
    "I</w>": 227,
    "ow": 228,
    "ag": 229,
    "ab": 230,
    "il</w>": 231,
    "li": 232,
    "se</w>": 233,
    "he</w>": 234,
    "ri": 235,
    "si": 236,
    "lu": 237,
    "con": 238,
    "for": 239,
    "par": 240,
    "st": 241,
    "am": 242,
    "un</w>": 243,
    "ac": 244,
    "se": 245,
    "te</w>": 246,
    "ap": 247,
    "\u00e9t": 248,
    "\u00e9</w>": 249,
    "et": 250,
    "ent": 251,
    "l'": 252,
    "com": 253,
    "du": 254,
    "ur</w>": 255,
    "that</w>": 256,
    "ant</w>": 257,
    "ol": 258,
    "gh": 259,
    "su": 260,
    "im": 261,
    "th</w>": 262,
    "de": 263,
    "une</w>": 264,
    "no": 265,
    "ne</w>": 266,
    "was</w>": 267,
    "di": 268,
    "ver": 269,
    "x</w>": 270,
    "ro": 271,
    "po": 272,
    "an</w>": 273,
    "ain": 274,
    "our</w>": 275,
    "his</w>": 276,
    "ans</w>": 277,
    "wi": 278,
    "be": 279,
    "re</w>": 280,
    "ut</w>": 281,
    "ly</w>": 282,
    "ad": 283,
    "!</w>": 284,
    "tre</w>": 285,
    "des</w>": 286,
    "mo": 287,
    "us": 288,
    "d,</w>": 289,
    "qui</w>": 290,
    "e.</w>": 291,
    "ec": 292,
    "ou</w>": 293,
    "ad</w>": 294,
    "ati": 295,
    "du</w>": 296,
    "ais</w>": 297,
    "lo": 298,
    "end": 299,
    "es,</w>": 300,
    "n</w>": 301,
    "ch</w>": 302,
    "\u201d</w>": 303,
    "--": 304,
    "ere</w>": 305,
    "r\u00e9": 306,
    "est</w>": 307,
    "oul": 308,
    "sh": 309,
    "with</w>": 310,
    "ter": 311,
    "d'": 312,
    "au</w>": 313,
    "ex": 314,
    "vous</w>": 315,
    "ff": 316,
    "ir</w>": 317,
    "out</w>": 318,
    "d\u00e9": 319,
    "dans</w>": 320,
    "k</w>": 321,
    "aient</w>": 322,
    "res": 323,
    "ons</w>": 324,
    "had</w>": 325,
    "ic": 326,
    "vo": 327,
    "pro": 328,
    "je</w>": 329,
    "don": 330,
    "re,</w>": 331,
    "pl": 332,
    "fr": 333,
    "not</w>": 334,
    "he": 335,
    "pas</w>": 336,
    "ant": 337,
    "\u00e9tait</w>": 338,
    "for</w>": 339,
    "s.</w>": 340,
    "ave</w>": 341,
    "per": 342,
    "y,</w>": 343,
    "my</w>": 344,
    "ould</w>": 345,
    "ev": 346,
    "son</w>": 347,
    "all</w>": 348,
    "dit</w>": 349,
    "be</w>": 350,
    "ouv": 351,
    "d\u2019": 352,
    "om</w>": 353,
    "enc": 354,
    "?</w>": 355,
    "op": 356,
    "him": 357,
    "you</w>": 358,
    "ez": 359,
    "plu": 360,
    "up": 361,
    "gr": 362,
    "the": 363,
    "ement</w>": 364,
    "qu'": 365,
    "vi": 366,
    "al</w>": 367,
    "so": 368,
    "ow</w>": 369,
    "on,</w>": 370,
    "ser": 371,
    "sur</w>": 372,
    "or</w>": 373,
    "and": 374,
    "her</w>": 375,
    "ma": 376,
    "mon": 377,
    "oun": 378,
    "ais": 379,
    "eux</w>": 380,
    "eur": 381,
    "mi": 382,
    "ong": 383,
    "pour</w>": 384,
    "er,</w>": 385,
    "res</w>": 386,
    "have</w>": 387,
    "dis": 388,
    "avait</w>": 389,
    "s'": 390,
    "ette</w>": 391,
    "sai": 392,
    "elle</w>": 393,
    "ang": 394,
    "ard": 395,
    "\u2014</w>": 396,
    "but</w>": 397,
    "ul": 398,
    "ter</w>": 399,
    "ay": 400,
    "l\u2019": 401,
    "por": 402,
    "ten": 403,
    "all": 404,
    "by</w>": 405,
    "ght</w>": 406,
    "ass": 407,
    "\u2019s</w>": 408,
    "ar</w>": 409,
    "\u00e9c": 410,
    "oo": 411,
    "par</w>": 412,
    "plus</w>": 413,
    "pe": 414,
    "bi": 415,
    "bl": 416,
    "ni": 417,
    "si</w>": 418,
    "ill": 419,
    "som": 420,
    "t-": 421,
    "whi": 422,
    "br": 423,
    "ses</w>": 424,
    "cette</w>": 425,
    "pu": 426,
    "ed": 427,
    "anc": 428,
    "nous</w>": 429,
    "from</w>": 430,
    "i,</w>": 431,
    "ther</w>": 432,
    "sa</w>": 433,
    "iv": 434,
    "man": 435,
    "ne": 436,
    "n'": 437,
    "which</w>": 438,
    "mar": 439,
    ":</w>": 440,
    "st</w>": 441,
    "sel": 442,
    "ez</w>": 443,
    "quel": 444,
    "agn": 445,
    "this</w>": 446,
    "qu\u2019": 447,
    "ous": 448,
    "ke</w>": 449,
    "\u00e8s</w>": 450,
    "ep": 451,
    "--</w>": 452,
    "one</w>": 453,
    "fi": 454,
    "she</w>": 455,
    "ec</w>": 456,
    "tu": 457,
    "ent,</w>": 458,
    "mor": 459,
    "avec</w>": 460,
    "so</w>": 461,
    "bo": 462,
    "were</w>": 463,
    "tion</w>": 464,
    "ill</w>": 465,
    "ell": 466,
    "out": 467,
    "Ar": 468,
    "eur</w>": 469,
    "able</w>": 470,
    "\u00e9e</w>": 471,
    "ure</w>": 472,
    "aut": 473,
    "ay</w>": 474,
    "ation</w>": 475,
    "mais</w>": 476,
    "very</w>": 477,
    "ci": 478,
    "aux</w>": 479,
    "lui</w>": 480,
    "ces</w>": 481,
    "fai": 482,
    "ough": 483,
    "ted</w>": 484,
    "The</w>": 485,
    "ai</w>": 486,
    "mes</w>": 487,
    "ment</w>": 488,
    "str": 489,
    "comme</w>": 490,
    "sp": 491,
    "co": 492,
    "ven": 493,
    "aw": 494,
    "min": 495,
    "fo": 496,
    "emp": 497,
    "pon": 498,
    "me": 499,
    "ob": 500,
    "es.</w>": 501,
    "ther": 502,
    "ts</w>": 503,
    "hom": 504,
    "ta": 505,
    "der": 506,
    ",\u201d</w>": 507,
    "Il</w>": 508,
    "ru": 509,
    "Mr": 510,
    "gn": 511,
    "is,</w>": 512,
    "eu</w>": 513,
    "ess</w>": 514,
    "en,</w>": 515,
    "app": 516,
    "des": 517,
    "comp": 518,
    "own</w>": 519,
    "\u00e9r": 520,
    "tout</w>": 521,
    "tho": 522,
    "are</w>": 523,
    "dem": 524,
    "ils</w>": 525,
    "to": 526,
    "pos": 527,
    "him</w>": 528,
    "said</w>": 529,
    "been</w>": 530,
    "ers</w>": 531,
    "ve</w>": 532,
    "t.</w>": 533,
    "they</w>": 534,
    "mil": 535,
    "ance</w>": 536,
    "cou": 537,
    "ire</w>": 538,
    "c</w>": 539,
    "Le</w>": 540,
    "itt": 541,
    "ed,</w>": 542,
    "me,</w>": 543,
    "\u00e9s</w>": 544,
    "pre": 545,
    "fe": 546,
    "\u00e8re</w>": 547,
    "m\u00ea": 548,
    "et,</w>": 549,
    "re.</w>": 550,
    "do": 551,
    "no</w>": 552,
    "pi": 553,
    "air": 554,
    "Th": 555,
    "would</w>": 556,
    "cap": 557,
    "kn": 558,
    "wor": 559,
    "n\u2019": 560,
    "\u00e9,</w>": 561,
    "Wh": 562,
    "pres": 563,
    "e;</w>": 564,
    "tagn": 565,
    "them": 566,
    "ame</w>": 567,
    ".\u201d</w>": 568,
    "r\u00e9pon": 569,
    "s\u2019": 570,
    "when</w>": 571,
    "tou": 572,
    "gu": 573,
    "Mr.</w>": 574,
    "deux</w>": 575,
    "h</w>": 576,
    "iss": 577,
    "cr": 578,
    "long": 579,
    "jour": 580,
    "age</w>": 581,
    "their</w>": 582,
    "ence</w>": 583,
    "ough</w>": 584,
    "mon</w>": 585,
    "Artagn": 586,
    "ite</w>": 587,
    "ant,</w>": 588,
    "on.</w>": 589,
    "red</w>": 590,
    "cour": 591,
    "u</w>": 592,
    "ever</w>": 593,
    "um": 594,
    "loo": 595,
    "ut": 596,
    "ail": 597,
    "ck": 598,
    "Qu": 599,
    "ble</w>": 600,
    "\u00eatre</w>": 601,
    "port": 602,
    "cor": 603,
    "col": 604,
    "it,</w>": 605,
    "cel": 606,
    "pass": 607,
    "\u00eat": 608,
    "son": 609,
    "ard</w>": 610,
    "ine</w>": 611,
    "thing</w>": 612,
    "arg": 613,
    "could</w>": 614,
    "rent</w>": 615,
    "poin": 616,
    "gl": 617,
    "qu'il</w>": 618,
    "her": 619,
    "what</w>": 620,
    "arb": 621,
    "gre": 622,
    "oc": 623,
    "cont": 624,
    "af": 625,
    "ust</w>": 626,
    "some</w>": 627,
    "Je</w>": 628,
    "ver</w>": 629,
    "your</w>": 630,
    "sans</w>": 631,
    "if</w>": 632,
    "p</w>": 633,
    "ess": 634,
    "bien</w>": 635,
    "It</w>": 636,
    "pas": 637,
    "cl": 638,
    "ents</w>": 639,
    "fa": 640,
    "upon</w>": 641,
    "into</w>": 642,
    "rem": 643,
    "dev": 644,
    "leur</w>": 645,
    "An": 646,
    "He</w>": 647,
    "will</w>": 648,
    "temp": 649,
    "fu": 650,
    "there</w>": 651,
    "y.</w>": 652,
    "arri": 653,
    "conn": 654,
    "its</w>": 655,
    "tro": 656,
    "ret": 657,
    "eur,</w>": 658,
    "cer": 659,
    "ing,</w>": 660,
    "e-": 661,
    "comm": 662,
    "king</w>": 663,
    "w</w>": 664,
    "ked</w>": 665,
    "But</w>": 666,
    "ques</w>": 667,
    "dou": 668,
    "ce": 669,
    "mu": 670,
    "d\u2019Artagn": 671,
    "_</w>": 672,
    "who</w>": 673,
    "\u00e8rent</w>": 674,
    "abl": 675,
    "sor": 676,
    "ach": 677,
    "\u00bb</w>": 678,
    "heu": 679,
    "pr\u00e8s</w>": 680,
    "am</w>": 681,
    "we</w>": 682,
    "sur": 683,
    "fut</w>": 684,
    "more</w>": 685,
    "fin": 686,
    "cre": 687,
    "leur": 688,
    "\u00fbt</w>": 689,
    "x,</w>": 690,
    "z</w>": 691,
    "parti": 692,
    "litt": 693,
    "up</w>": 694,
    "ren": 695,
    "ound</w>": 696,
    "ate</w>": 697,
    "\u00e9ri": 698,
    "go": 699,
    "res,</w>": 700,
    "we": 701,
    "reg": 702,
    "serv": 703,
    "el</w>": 704,
    "att": 705,
    "dont</w>": 706,
    "onn": 707,
    "aine</w>": 708,
    "hab": 709,
    "m\u00eame</w>": 710,
    "enti": 711,
    "like</w>": 712,
    "r\u00e9pondit</w>": 713,
    "pris": 714,
    "Mais</w>": 715,
    "ile</w>": 716,
    "old</w>": 717,
    "ast</w>": 718,
    "arm": 719,
    "\u00f9</w>": 720,
    "\u201cI</w>": 721,
    "pr\u00e9": 722,
    "self</w>": 723,
    "can": 724,
    "fer": 725,
    "mom": 726,
    "s;</w>": 727,
    "dr": 728,
    "other</w>": 729,
    "donc</w>": 730,
    "\u00e9t\u00e9</w>": 731,
    "fl": 732,
    "than</w>": 733,
    "dit": 734,
    "donn": 735,
    "aiss": 736,
    "cu": 737,
    "ain</w>": 738,
    "tt": 739,
    "arr": 740,
    "most</w>": 741,
    "tw": 742,
    "fon": 743,
    "vou": 744,
    "aus": 745,
    "any</w>": 746,
    "cri": 747,
    "o\u00f9</w>": 748,
    "monsi": 749,
    "cas": 750,
    "ors</w>": 751,
    "sou": 752,
    "ore</w>": 753,
    "La</w>": 754,
    "a,</w>": 755,
    "endant</w>": 756,
    "qu\u2019il</w>": 757,
    "avo": 758,
    "ons,</w>": 759,
    "ist": 760,
    "cho": 761,
    "le.</w>": 762,
    "er.</w>": 763,
    "ear": 764,
    "ip": 765,
    "little</w>": 766,
    "us</w>": 767,
    "seu": 768,
    "vis": 769,
    "ord": 770,
    "such</w>": 771,
    "cro": 772,
    "ell</w>": 773,
    "voy": 774,
    "inst": 775,
    "d'un</w>": 776,
    "ood</w>": 777,
    "mat": 778,
    "ins</w>": 779,
    "an,</w>": 780,
    "fore</w>": 781,
    "capit": 782,
    "ally</w>": 783,
    "est": 784,
    "urn": 785,
    "fac": 786,
    "tri": 787,
    "form": 788,
    "ge": 789,
    "inter": 790,
    "\u00e9taient</w>": 791,
    "pouv": 792,
    "g</w>": 793,
    "fait</w>": 794,
    "c'": 795,
    "ey": 796,
    "Et</w>": 797,
    "you": 798,
    "rest": 799,
    "emb": 800,
    "trouv": 801,
    "man</w>": 802,
    "with": 803,
    "hi": 804,
    "whal": 805,
    "h!</w>": 806,
    "ign": 807,
    "\u2019</w>": 808,
    "pen": 809,
    "ind": 810,
    "only</w>": 811,
    "now</w>": 812,
    "encro": 813,
    "and,</w>": 814,
    "il,</w>": 815,
    "Pencro": 816,
    "do</w>": 817,
    "peu": 818,
    "has</w>": 819,
    "eff": 820,
    "fir": 821,
    "ely</w>": 822,
    "ais,</w>": 823,
    "ect": 824,
    "ent.</w>": 825,
    "\u00e9es</w>": 826,
    "prit</w>": 827,
    "ady</w>": 828,
    "que,</w>": 829,
    "eau</w>": 830,
    "cur": 831,
    "homme</w>": 832,
    "ph": 833,
    "\u00e9n": 834,
    "Cy": 835,
    "int": 836,
    "Les</w>": 837,
    "ett": 838,
    "mis": 839,
    "anch": 840,
    "sous</w>": 841,
    "avoir</w>": 842,
    "them</w>": 843,
    "ille</w>": 844,
    "sit": 845,
    "ese</w>": 846,
    "jus": 847,
    "d.</w>": 848,
    "der</w>": 849,
    "seem": 850,
    "should</w>": 851,
    "must</w>": 852,
    "aff": 853,
    "in,</w>": 854,
    "Cyru": 855,
    "trav": 856,
    "je": 857,
    "main": 858,
    "of": 859,
    "aur": 860,
    "!\u201d</w>": 861,
    "And</w>": 862,
    "th,</w>": 863,
    "sem": 864,
    "k,</w>": 865,
    "ish": 866,
    "id": 867,
    "demand": 868,
    "before</w>": 869,
    "did</w>": 870,
    "ale</w>": 871,
    "point</w>": 872,
    "oll": 873,
    "nat": 874,
    "encore</w>": 875,
    "faire</w>": 876,
    "off": 877,
    "On</w>": 878,
    "sion</w>": 879,
    "M.</w>": 880,
    "a\u00ee": 881,
    "?\u201d</w>": 882,
    "hu": 883,
    "eli": 884,
    "d'une</w>": 885,
    "jo": 886,
    "omb": 887,
    "endre</w>": 888,
    "sup": 889,
    "over</w>": 890,
    "rec": 891,
    "fit</w>": 892,
    "ought</w>": 893,
    "ow,</w>": 894,
    "down</w>": 895,
    "thin": 896,
    "cin": 897,
    "ed.</w>": 898,
    "rel": 899,
    "then</w>": 900,
    "ay,</w>": 901,
    "air</w>": 902,
    "much</w>": 903,
    "ace</w>": 904,
    "self": 905,
    "ue</w>": 906,
    "vers</w>": 907,
    "thr": 908,
    "ays</w>": 909,
    "puis</w>": 910,
    "tain": 911,
    "again": 912,
    "ated</w>": 913,
    "about</w>": 914,
    "ont</w>": 915,
    "gi": 916,
    "tions</w>": 917,
    "Smi": 918,
    "En</w>": 919,
    "these</w>": 920,
    "it\u00e9</w>": 921,
    "it.</w>": 922,
    "trois</w>": 923,
    "peu</w>": 924,
    "Atho": 925,
    "\u00e9cri": 926,
    "quelques</w>": 927,
    "some": 928,
    "can</w>": 929,
    "mer": 930,
    "You</w>": 931,
    "Cyrus</w>": 932,
    "ity</w>": 933,
    "al,</w>": 934,
    "\u00e9e,</w>": 935,
    "ful": 936,
    "car": 937,
    "see</w>": 938,
    "gen": 939,
    "leurs</w>": 940,
    "ast": 941,
    "ong</w>": 942,
    "may</w>": 943,
    "time</w>": 944,
    "Mon": 945,
    "car</w>": 946,
    "har": 947,
    "contin": 948,
    "ement,</w>": 949,
    "ran": 950,
    "ge</w>": 951,
    "de,</w>": 952,
    "long</w>": 953,
    "e\u00fbt</w>": 954,
    "aci": 955,
    "avaient</w>": 956,
    "though</w>": 957,
    "ans": 958,
    "enn": 959,
    "\u2019est</w>": 960,
    "my": 961,
    "lev": 962,
    "are": 963,
    "capitaine</w>": 964,
    "C'": 965,
    "j'": 966,
    "eurs</w>": 967,
    "fri": 968,
    "never</w>": 969,
    "quo": 970,
    "\u00e9p": 971,
    "hor": 972,
    "\u00e9g": 973,
    "two</w>": 974,
    "came</w>": 975,
    "eng": 976,
    "bu": 977,
    "cal": 978,
    "\u00e9ni": 979,
    "jours</w>": 980,
    "A</w>": 981,
    "ple": 982,
    "ful</w>": 983,
    "\u00f4t": 984,
    "ve": 985,
    "might</w>": 986,
    "l'\u00ee": 987,
    "premi": 988,
    "rap": 989,
    "t-il</w>": 990,
    "ever": 991,
    "entr": 992,
    "votre</w>": 993,
    "ez-": 994,
    "j\u2019": 995,
    "end</w>": 996,
    "fois</w>": 997,
    "temps</w>": 998,
    "who": 999,
    "great</w>": 1000,
    "Eli": 1001,
    "mal": 1002,
    "cet</w>": 1003,
    "cep": 1004,
    "mur": 1005,
    "possi": 1006,
    "ra": 1007,
    "pour": 1008,
    "sol": 1009,
    "ma</w>": 1010,
    "amb": 1011,
    "i-": 1012,
    "me.</w>": 1013,
    "exp": 1014,
    "abe": 1015,
    "ir,</w>": 1016,
    "ings</w>": 1017,
    "Al": 1018,
    "quelque</w>": 1019,
    "ds</w>": 1020,
    "\u00e9ch": 1021,
    "\u00e9.</w>": 1022,
    "dist": 1023,
    "Eliz": 1024,
    "after</w>": 1025,
    "arriv": 1026,
    "fau": 1027,
    "esp": 1028,
    "ards</w>": 1029,
    "\u00e9l": 1030,
    "ght": 1031,
    "nu": 1032,
    "sub": 1033,
    "at,</w>": 1034,
    "apr\u00e8s</w>": 1035,
    "let": 1036,
    "..": 1037,
    "tous</w>": 1038,
    "Ce</w>": 1039,
    "ak": 1040,
    "cher</w>": 1041,
    "Dant": 1042,
    "ish</w>": 1043,
    "ait,</w>": 1044,
    "Mil": 1045,
    "avez</w>": 1046,
    "Elizabe": 1047,
    "hand": 1048,
    "every</w>": 1049,
    "ques": 1050,
    "plac": 1051,
    "know</w>": 1052,
    "made</w>": 1053,
    "own": 1054,
    "\u00f4t</w>": 1055,
    "m</w>": 1056,
    "ourn": 1057,
    "ig": 1058,
    "Lor": 1059,
    "coun": 1060,
    "suiv": 1061,
    "inc": 1062,
    "him,</w>": 1063,
    "fort": 1064,
    "ect</w>": 1065,
    "art": 1066,
    "thre": 1067,
    "being</w>": 1068,
    "diff": 1069,
    "se,</w>": 1070,
    "men": 1071,
    "liv": 1072,
    "She</w>": 1073,
    "ive</w>": 1074,
    "lic": 1075,
    "how</w>": 1076,
    "le,</w>": 1077,
    "Can": 1078,
    "sont</w>": 1079,
    "auv": 1080,
    "peti": 1081,
    "entre</w>": 1082,
    "ded</w>": 1083,
    "clo": 1084,
    "ack</w>": 1085,
    "ck</w>": 1086,
    "aw</w>": 1087,
    "moment</w>": 1088,
    "ation,</w>": 1089,
    "tir": 1090,
    "jet": 1091,
    "ju": 1092,
    "tain</w>": 1093,
    "op</w>": 1094,
    "wat": 1095,
    "jeune</w>": 1096,
    "cau": 1097,
    "tout": 1098,
    "bet": 1099,
    "cul": 1100,
    "cher": 1101,
    "ie</w>": 1102,
    "toute</w>": 1103,
    "che</w>": 1104,
    "ante</w>": 1105,
    "reu": 1106,
    "where</w>": 1107,
    "ef": 1108,
    "mer</w>": 1109,
    "too": 1110,
    "fur": 1111,
    "qua": 1112,
    "fem": 1113,
    "se.</w>": 1114,
    "qui": 1115,
    "cent</w>": 1116,
    "first</w>": 1117,
    "ter,</w>": 1118,
    "ardin": 1119,
    "Harb": 1120,
    "bien,</w>": 1121,
    "bre": 1122,
    "continu": 1123,
    "fort</w>": 1124,
    "Por": 1125,
    "Harber": 1126,
    "a-": 1127,
    "come</w>": 1128,
    "head": 1129,
    "ss": 1130,
    "autil": 1131,
    "gar": 1132,
    "led</w>": 1133,
    "sen": 1134,
    "Nautil": 1135,
    "those</w>": 1136,
    "fam": 1137,
    "tion,</w>": 1138,
    "s\u00e9": 1139,
    "ari": 1140,
    "eau": 1141,
    "e!</w>": 1142,
    "eux,</w>": 1143,
    "tor": 1144,
    "compagn": 1145,
    "Vous</w>": 1146,
    "ing\u00e9ni": 1147,
    "\u2019t</w>": 1148,
    "gran": 1149,
    "contr": 1150,
    "face</w>": 1151,
    "age,</w>": 1152,
    "able,</w>": 1153,
    "int</w>": 1154,
    "ise</w>": 1155,
    "ations</w>": 1156,
    "\u00e9cria</w>": 1157,
    "No": 1158,
    "m\u2019": 1159,
    "m'": 1160,
    "Pencroff": 1161,
    "larg": 1162,
    "shall</w>": 1163,
    "dire</w>": 1164,
    "dro": 1165,
    "bon": 1166,
    "d\u2019Artagnan</w>": 1167,
    "quand</w>": 1168,
    "mille</w>": 1169,
    "dit-": 1170,
    "iss</w>": 1171,
    "without</w>": 1172,
    "iz": 1173,
    "ing.</w>": 1174,
    "es;</w>": 1175,
    "Ou": 1176,
    "good</w>": 1177,
    "pil": 1178,
    "tion": 1179,
    "alors</w>": 1180,
    "ke": 1181,
    "lif": 1182,
    "arc": 1183,
    "seemed</w>": 1184,
    "St": 1185,
    "prom": 1186,
    "moins</w>": 1187,
    "pr\u00e9c": 1188,
    "ni</w>": 1189,
    "sil": 1190,
    "lor": 1191,
    "stru": 1192,
    "think</w>": 1193,
    "asse": 1194,
    "happ": 1195,
    "Con": 1196,
    "quel</w>": 1197,
    "tes</w>": 1198,
    "Nautilus": 1199,
    "still</w>": 1200,
    "even</w>": 1201,
    "gent": 1202,
    "ence,</w>": 1203,
    "ouver": 1204,
    "L'": 1205,
    "In</w>": 1206,
    "bro": 1207,
    "notre</w>": 1208,
    "tr\u00e8s</w>": 1209,
    "voir</w>": 1210,
    "_Nautilus": 1211,
    "voi": 1212,
    "ille": 1213,
    "pouvait</w>": 1214,
    "la": 1215,
    "quatre</w>": 1216,
    "c'est</w>": 1217,
    "regard": 1218,
    "less</w>": 1219,
    "Miss</w>": 1220,
    "ily</w>": 1221,
    "ici": 1222,
    "ks</w>": 1223,
    "ants</w>": 1224,
    "ber": 1225,
    "atten": 1226,
    "dd": 1227,
    "last</w>": 1228,
    "autre</w>": 1229,
    "\u00e8re,</w>": 1230,
    "fais": 1231,
    "lec": 1232,
    "ness</w>": 1233,
    "appe": 1234,
    "through</w>": 1235,
    "The": 1236,
    "val": 1237,
    "main</w>": 1238,
    "aire</w>": 1239,
    "seul": 1240,
    "itu": 1241,
    "beg": 1242,
    "nouv": 1243,
    "ouvr": 1244,
    "ther,</w>": 1245,
    "Vo": 1246,
    "mas": 1247,
    "hear": 1248,
    "part</w>": 1249,
    "coup": 1250,
    "yet</w>": 1251,
    "ance,</w>": 1252,
    "sembl": 1253,
    "ty</w>": 1254,
    "re;</w>": 1255,
    "ary</w>": 1256,
    "m\u00e9": 1257,
    "anti": 1258,
    "consi": 1259,
    "ho": 1260,
    "auc": 1261,
    "ep</w>": 1262,
    "ess,</w>": 1263,
    "bar": 1264,
    "hal": 1265,
    "vol": 1266,
    "\u00e0,</w>": 1267,
    "jam": 1268,
    "observ": 1269,
    "ning</w>": 1270,
    "ille,</w>": 1271,
    "There</w>": 1272,
    "way</w>": 1273,
    "ton</w>": 1274,
    "ea": 1275,
    "many</w>": 1276,
    "anim": 1277,
    "rou": 1278,
    "c\u2019est</w>": 1279,
    "ieu</w>": 1280,
    "sis": 1281,
    "cardin": 1282,
    "En": 1283,
    "secon": 1284,
    "spe": 1285,
    "ered</w>": 1286,
    ".\u00bb</w>": 1287,
    "as,</w>": 1288,
    "q</w>": 1289,
    "suis</w>": 1290,
    "heures</w>": 1291,
    "jusqu'": 1292,
    "bor": 1293,
    "flo": 1294,
    "turn": 1295,
    "Portho": 1296,
    "ion</w>": 1297,
    "Nem": 1298,
    "sin": 1299,
    "moi</w>": 1300,
    "sent": 1301,
    "pendant</w>": 1302,
    "ly,</w>": 1303,
    "cir": 1304,
    "sour": 1305,
    "while</w>": 1306,
    "hel": 1307,
    "que": 1308,
    "monsieur</w>": 1309,
    "ship": 1310,
    "d\u2019Artagnan,</w>": 1311,
    "sav": 1312,
    "eux": 1313,
    "Par": 1314,
    "ting</w>": 1315,
    "ying</w>": 1316,
    "Com": 1317,
    "amp": 1318,
    "d\u00e9j": 1319,
    "toutes</w>": 1320,
    "or,</w>": 1321,
    "youn": 1322,
    "de.</w>": 1323,
    "sm": 1324,
    "appar": 1325,
    "mes": 1326,
    "Bon": 1327,
    "coup</w>": 1328,
    "ding</w>": 1329,
    "rai": 1330,
    "cinq</w>": 1331,
    "allait</w>": 1332,
    "ved</w>": 1333,
    "sc": 1334,
    "go</w>": 1335,
    "dar": 1336,
    "rien</w>": 1337,
    "Oui,</w>": 1338,
    "looked</w>": 1339,
    "\u00e8t": 1340,
    "thought</w>": 1341,
    "exc": 1342,
    "ange</w>": 1343,
    "saw</w>": 1344,
    "pur": 1345,
    "\u00eate</w>": 1346,
    "demanda</w>": 1347,
    "person": 1348,
    "ving": 1349,
    "Eh</w>": 1350,
    "celu": 1351,
    "est-": 1352,
    "well</w>": 1353,
    "ind</w>": 1354,
    "day</w>": 1355,
    "ers,</w>": 1356,
    "Monsi": 1357,
    "tru": 1358,
    "dre": 1359,
    "e\u2019s</w>": 1360,
    "Ahab": 1361,
    "l'ing\u00e9ni": 1362,
    "suff": 1363,
    "put</w>": 1364,
    "vit": 1365,
    "aving</w>": 1366,
    "appro": 1367,
    "hop": 1368,
    "direc": 1369,
    "monsieur,</w>": 1370,
    "c\u00e9": 1371,
    "ine,</w>": 1372,
    "aj": 1373,
    "Hol": 1374,
    "sal": 1375,
    "three</w>": 1376,
    "over": 1377,
    "mad": 1378,
    "grand</w>": 1379,
    "found</w>": 1380,
    "ken</w>": 1381,
    "nothing</w>": 1382,
    "laiss": 1383,
    "cela</w>": 1384,
    "hum": 1385,
    "tal": 1386,
    "pas,</w>": 1387,
    "moi,</w>": 1388,
    "quelle</w>": 1389,
    "reprit</w>": 1390,
    "same</w>": 1391,
    "head</w>": 1392,
    "mp": 1393,
    "extr": 1394,
    "ght,</w>": 1395,
    "\u00e9tr": 1396,
    "They</w>": 1397,
    "l\u00e0</w>": 1398,
    "bri": 1399,
    "_,</w>": 1400,
    "chamb": 1401,
    "Un</w>": 1402,
    "y;</w>": 1403,
    "ma\u00ee": 1404,
    "chev": 1405,
    "pri": 1406,
    "ze</w>": 1407,
    "z-": 1408,
    "reconn": 1409,
    "Smith</w>": 1410,
    "ff</w>": 1411,
    "\u00e9s,</w>": 1412,
    "parl": 1413,
    "toujours</w>": 1414,
    "d\u2019un</w>": 1415,
    "faut</w>": 1416,
    "mou": 1417,
    "make</w>": 1418,
    "sed</w>": 1419,
    "ared</w>": 1420,
    "s-": 1421,
    "viv": 1422,
    "pli": 1423,
    "aussi</w>": 1424,
    "qui,</w>": 1425,
    "posi": 1426,
    "ways</w>": 1427,
    "place</w>": 1428,
    "attend": 1429,
    "\u00ab</w>": 1430,
    "res.</w>": 1431,
    "c\u00f4t": 1432,
    "wr": 1433,
    "certain": 1434,
    "ner</w>": 1435,
    "soon</w>": 1436,
    "bod": 1437,
    "ft</w>": 1438,
    "nav": 1439,
    "rement</w>": 1440,
    "d\u00e9j\u00e0</w>": 1441,
    "te": 1442,
    "new</w>": 1443,
    "himself</w>": 1444,
    "ste": 1445,
    "l'\u00eele</w>": 1446,
    "bus": 1447,
    "went</w>": 1448,
    "ern": 1449,
    "\u00c0</w>": 1450,
    "h,</w>": 1451,
    "lig": 1452,
    "know": 1453,
    "My</w>": 1454,
    "pleas": 1455,
    "What</w>": 1456,
    "indi": 1457,
    "quet": 1458,
    "duc": 1459,
    "ches</w>": 1460,
    "bes": 1461,
    "Nab": 1462,
    "As</w>": 1463,
    "D\u2019": 1464,
    "mes,</w>": 1465,
    "hon": 1466,
    "pied": 1467,
    "porte</w>": 1468,
    "ation": 1469,
    "tre": 1470,
    "owed</w>": 1471,
    "ard,</w>": 1472,
    "quar": 1473,
    "puis": 1474,
    "Aram": 1475,
    "pris</w>": 1476,
    "six</w>": 1477,
    "tant</w>": 1478,
    "jour</w>": 1479,
    "just</w>": 1480,
    "\u00e8s,</w>": 1481,
    "take</w>": 1482,
    "iti": 1483,
    "heard</w>": 1484,
    "jamais</w>": 1485,
    "ies</w>": 1486,
    "Conse": 1487,
    "profon": 1488,
    "how": 1489,
    "ath": 1490,
    "devait</w>": 1491,
    "ros": 1492,
    "ages</w>": 1493,
    "Elizabeth</w>": 1494,
    "ack": 1495,
    "shi": 1496,
    "uck": 1497,
    "Spil": 1498,
    "tow": 1499,
    "sul": 1500,
    "elles</w>": 1501,
    "Dant\u00e8s</w>": 1502,
    "any": 1503,
    "enf": 1504,
    "derni": 1505,
    "lat": 1506,
    "ick": 1507,
    "augh": 1508,
    "pren": 1509,
    "This</w>": 1510,
    "Ay": 1511,
    "si,</w>": 1512,
    "Pencroff,</w>": 1513,
    "hou": 1514,
    "Mrs.</w>": 1515,
    "vers": 1516,
    "conv": 1517,
    "bou": 1518,
    "\u00eates</w>": 1519,
    "prof": 1520,
    "tu</w>": 1521,
    "adm": 1522,
    "prison": 1523,
    "prendre</w>": 1524,
    "ez-vous</w>": 1525,
    "irent</w>": 1526,
    "under</w>": 1527,
    "bli": 1528,
    "other": 1529,
    "Darc": 1530,
    "eyes</w>": 1531,
    "won": 1532,
    "soit</w>": 1533,
    "yeux</w>": 1534,
    "fus": 1535,
    "ls</w>": 1536,
    "ts,</w>": 1537,
    "Nous</w>": 1538,
    "az": 1539,
    "Spilet": 1540,
    "ham": 1541,
    "say</w>": 1542,
    "solu": 1543,
    "cup": 1544,
    "v\u00e9r": 1545,
    "effet,</w>": 1546,
    "ry</w>": 1547,
    "tic": 1548,
    "ann": 1549,
    "charg": 1550,
    "year": 1551,
    "ves</w>": 1552,
    "chez</w>": 1553,
    "ched</w>": 1554,
    "bb": 1555,
    "depuis</w>": 1556,
    "round</w>": 1557,
    "Candi": 1558,
    "ation.</w>": 1559,
    "beli": 1560,
    "sign": 1561,
    "t\u00e9</w>": 1562,
    "cause</w>": 1563,
    "cle": 1564,
    "ez,</w>": 1565,
    "seen</w>": 1566,
    "te,</w>": 1567,
    "remar": 1568,
    "fre": 1569,
    "high": 1570,
    "off</w>": 1571,
    "desc": 1572,
    "ped</w>": 1573,
    "young</w>": 1574,
    "ainsi</w>": 1575,
    "Pencroff</w>": 1576,
    "ain,</w>": 1577,
    "inf": 1578,
    "...</w>": 1579,
    "assez</w>": 1580,
    "under": 1581,
    "whale</w>": 1582,
    "Ch": 1583,
    "en.</w>": 1584,
    "i.</w>": 1585,
    "furent</w>": 1586,
    "serait</w>": 1587,
    "venait</w>": 1588,
    "If</w>": 1589,
    "vent": 1590,
    "wind": 1591,
    "Ah!</w>": 1592,
    "tion.</w>": 1593,
    "ban": 1594,
    "Cep": 1595,
    "back</w>": 1596,
    "ens</w>": 1597,
    "look</w>": 1598,
    "dres": 1599,
    "sw": 1600,
    "eur.</w>": 1601,
    "endant,</w>": 1602,
    "far</w>": 1603,
    "contre</w>": 1604,
    "always</w>": 1605,
    "self,</w>": 1606,
    "sing": 1607,
    "few</w>": 1608,
    "Gran": 1609,
    "dent</w>": 1610,
    "is.</w>": 1611,
    "adi": 1612,
    "pap": 1613,
    "o,</w>": 1614,
    "minut": 1615,
    "get</w>": 1616,
    "you,</w>": 1617,
    "dout": 1618,
    "times</w>": 1619,
    "quoi</w>": 1620,
    "too</w>": 1621,
    "We</w>": 1622,
    "peut-": 1623,
    "pu</w>": 1624,
    "_Nautilus_</w>": 1625,
    "ements</w>": 1626,
    "inde": 1627,
    "ch,</w>": 1628,
    "s!</w>": 1629,
    "\u00e9d\u00e9": 1630,
    "senti": 1631,
    "vous,</w>": 1632,
    "non</w>": 1633,
    "away</w>": 1634,
    "occup": 1635,
    "expres": 1636,
    "hun": 1637,
    "e?</w>": 1638,
    "bal": 1639,
    "Milady</w>": 1640,
    "worl": 1641,
    "wal": 1642,
    "spo": 1643,
    "suc": 1644,
    "rais": 1645,
    "sl": 1646,
    "doub": 1647,
    "chem": 1648,
    "took</w>": 1649,
    "ment": 1650,
    "among</w>": 1651,
    "lui,</w>": 1652,
    "him.</w>": 1653,
    "C'est</w>": 1654,
    "met": 1655,
    "Fr": 1656,
    "import": 1657,
    "ently</w>": 1658,
    "feel": 1659,
    "ment,</w>": 1660,
    "pous": 1661,
    "grande</w>": 1662,
    "instant</w>": 1663,
    "resp": 1664,
    "room": 1665,
    "Oh!</w>": 1666,
    "\u00e8res</w>": 1667,
    "ousquet": 1668,
    "answ": 1669,
    "Monsieur</w>": 1670,
    "elle,</w>": 1671,
    "ions</w>": 1672,
    "ten</w>": 1673,
    "d\u2019une</w>": 1674,
    "eaux</w>": 1675,
    "ell,</w>": 1676,
    "hap": 1677,
    "hand</w>": 1678,
    "tell</w>": 1679,
    "once</w>": 1680,
    "Mais,</w>": 1681,
    "dre</w>": 1682,
    "J'": 1683,
    "wom": 1684,
    "fel": 1685,
    "cab": 1686,
    "ever,</w>": 1687,
    "sk": 1688,
    "ee": 1689,
    "ained</w>": 1690,
    "mainten": 1691,
    "eas": 1692,
    "left</w>": 1693,
    "Mer": 1694,
    "an\u00e7": 1695,
    "r\u00e9v": 1696,
    "pul": 1697,
    "vie": 1698,
    "side</w>": 1699,
    "again</w>": 1700,
    "devant</w>": 1701,
    "a.</w>": 1702,
    "!\u00bb</w>": 1703,
    "milieu</w>": 1704,
    "n'est</w>": 1705,
    "almost</w>": 1706,
    "possible</w>": 1707,
    "towards</w>": 1708,
    "d\u00e9t": 1709,
    "G\u00e9d\u00e9": 1710,
    "man,</w>": 1711,
    "that": 1712,
    "onc": 1713,
    "pou": 1714,
    "G\u00e9d\u00e9on</w>": 1715,
    "colons</w>": 1716,
    "trou": 1717,
    "\u201c\u2018": 1718,
    "curi": 1719,
    "trans": 1720,
    "repor": 1721,
    "au-": 1722,
    "qu\u2019elle</w>": 1723,
    "here</w>": 1724,
    "inci": 1725,
    "fro": 1726,
    "esti": 1727,
    "Athos,</w>": 1728,
    "quite</w>": 1729,
    "bru": 1730,
    "il\u00e0</w>": 1731,
    "something</w>": 1732,
    "dg": 1733,
    "ot</w>": 1734,
    "iness</w>": 1735,
    "lem": 1736,
    "eut</w>": 1737,
    "d-": 1738,
    "compl": 1739,
    "env": 1740,
    "I\u2019": 1741,
    "believ": 1742,
    "chi": 1743,
    "reus": 1744,
    "ane</w>": 1745,
    "sci": 1746,
    "Di": 1747,
    "ire,</w>": 1748,
    "appel": 1749,
    "femme</w>": 1750,
    "moy": 1751,
    "reas": 1752,
    "When</w>": 1753,
    "dang": 1754,
    "aper": 1755,
    "tomb": 1756,
    "Athos</w>": 1757,
    "hau": 1758,
    "against</w>": 1759,
    "cru": 1760,
    "there": 1761,
    "autres</w>": 1762,
    "Mor": 1763,
    "D\u2019Artagn": 1764,
    "Bonaci": 1765,
    "ling</w>": 1766,
    "ceiv": 1767,
    "ir.</w>": 1768,
    "In": 1769,
    "d;</w>": 1770,
    "peut</w>": 1771,
    "ating</w>": 1772,
    "celui</w>": 1773,
    "giv": 1774,
    "ter.</w>": 1775,
    "ash": 1776,
    "ay.</w>": 1777,
    "ris": 1778,
    "d\u00e9s": 1779,
    "ished</w>": 1780,
    "chil": 1781,
    "riv": 1782,
    "mont": 1783,
    "\u00bb,</w>": 1784,
    "obj": 1785,
    "El": 1786,
    "fic": 1787,
    "cried</w>": 1788,
    "whole</w>": 1789,
    "ables</w>": 1790,
    "gne</w>": 1791,
    "entend": 1792,
    "Une</w>": 1793,
    "though": 1794,
    "arn": 1795,
    "ier</w>": 1796,
    "call": 1797,
    "tin": 1798,
    "natu": 1799,
    "ween</w>": 1800,
    "give</w>": 1801,
    "fois,</w>": 1802,
    "ances</w>": 1803,
    "light</w>": 1804,
    "in.</w>": 1805,
    "beh": 1806,
    "produ": 1807,
    "tly</w>": 1808,
    "pe</w>": 1809,
    "esse</w>": 1810,
    "f\u00fbt</w>": 1811,
    "lice</w>": 1812,
    "trop</w>": 1813,
    "v\u00e9rit": 1814,
    "mag": 1815,
    "ble,</w>": 1816,
    "then,</w>": 1817,
    "ite-": 1818,
    "ait-il</w>": 1819,
    "hommes</w>": 1820,
    "\u201cYou</w>": 1821,
    "heav": 1822,
    "let</w>": 1823,
    ",\u2019</w>": 1824,
    "ship</w>": 1825,
    "venir</w>": 1826,
    "them,</w>": 1827,
    "unt": 1828,
    "rev": 1829,
    "\u00e8v": 1830,
    "ement": 1831,
    "toge": 1832,
    "nom</w>": 1833,
    "l\u00e0,</w>": 1834,
    "Au</w>": 1835,
    "men</w>": 1836,
    "large</w>": 1837,
    "prob": 1838,
    "aid</w>": 1839,
    "foll": 1840,
    "rend": 1841,
    "acc": 1842,
    "lors": 1843,
    "avant</w>": 1844,
    "certain</w>": 1845,
    "pal": 1846,
    "stre": 1847,
    "command": 1848,
    "ici</w>": 1849,
    "paro": 1850,
    "whe": 1851,
    "plat": 1852,
    "gener": 1853,
    "nos</w>": 1854,
    "t\u00eate</w>": 1855,
    "Ayr": 1856,
    "atta": 1857,
    "terri": 1858,
    "bat": 1859,
    "Cette</w>": 1860,
    "between</w>": 1861,
    "est,</w>": 1862,
    "Tr\u00e9v": 1863,
    "dit-il,</w>": 1864,
    "voul": 1865,
    "Harbert</w>": 1866,
    "ei": 1867,
    "looking</w>": 1868,
    "il.</w>": 1869,
    "reux</w>": 1870,
    "owing</w>": 1871,
    "gg": 1872,
    "His</w>": 1873,
    "dear</w>": 1874,
    "leurs,</w>": 1875,
    "s'\u00e9cria</w>": 1876,
    "qu'ils</w>": 1877,
    "atu": 1878,
    "ye</w>": 1879,
    "situ": 1880,
    "Ro": 1881,
    "abb": 1882,
    "cents</w>": 1883,
    "Ils</w>": 1884,
    "huit</w>": 1885,
    "qu\u2019on</w>": 1886,
    "ement.</w>": 1887,
    "dir": 1888,
    "avons</w>": 1889,
    "mousquet": 1890,
    "diffic": 1891,
    "ets</w>": 1892,
    "For</w>": 1893,
    "her,</w>": 1894,
    "chose</w>": 1895,
    "ble": 1896,
    "don\u2019t</w>": 1897,
    "\u00e9v": 1898,
    "dix</w>": 1899,
    "ingle": 1900,
    "dur": 1901,
    "whom</w>": 1902,
    "habit": 1903,
    "night</w>": 1904,
    "partie</w>": 1905,
    "\u00e9es,</w>": 1906,
    "b\u00e2": 1907,
    "j\u2019ai</w>": 1908,
    "C'\u00e9tait</w>": 1909,
    "viol": 1910,
    "rait</w>": 1911,
    "one,</w>": 1912,
    "y-": 1913,
    "ory</w>": 1914,
    "another</w>": 1915,
    "\u00e0-": 1916,
    "wil": 1917,
    "roi</w>": 1918,
    "ile,</w>": 1919,
    "voix</w>": 1920,
    "n'y</w>": 1921,
    "ade</w>": 1922,
    "carri": 1923,
    "De</w>": 1924,
    "pens": 1925,
    "abor": 1926,
    "gro": 1927,
    "allu": 1928,
    "bour": 1929,
    "having</w>": 1930,
    "turned</w>": 1931,
    "es-": 1932,
    "Bingle": 1933,
    "chang": 1934,
    "each</w>": 1935,
    "ened</w>": 1936,
    "aire,</w>": 1937,
    "sera</w>": 1938,
    "stand": 1939,
    "al.</w>": 1940,
    "gentlem": 1941,
    "omp": 1942,
    "ors,</w>": 1943,
    "aill": 1944,
    "issait</w>": 1945,
    "spir": 1946,
    "Ned</w>": 1947,
    "Mme</w>": 1948,
    "Nemo</w>": 1949,
    "Granite-": 1950,
    "felt</w>": 1951,
    "part": 1952,
    "sti": 1953,
    "haut": 1954,
    "Si</w>": 1955,
    "l'on</w>": 1956,
    "occas": 1957,
    "myself</w>": 1958,
    "trem": 1959,
    "ak</w>": 1960,
    "essi": 1961,
    "an.</w>": 1962,
    "che,</w>": 1963,
    "vent</w>": 1964,
    "arly</w>": 1965,
    "body</w>": 1966,
    "friend": 1967,
    "r</w>": 1968,
    "sep": 1969,
    "got</w>": 1970,
    "ame,</w>": 1971,
    "const": 1972,
    "le-": 1973,
    "aurait</w>": 1974,
    "cannot</w>": 1975,
    "beau": 1976,
    "susp": 1977,
    "ed;</w>": 1978,
    "emplo": 1979,
    "\u201cTh": 1980,
    "lis": 1981,
    "s\u2019\u00e9cria</w>": 1982,
    "n'\u00e9tait</w>": 1983,
    "your": 1984,
    "seulement</w>": 1985,
    "ant.</w>": 1986,
    "Pu": 1987,
    "\u00e8me</w>": 1988,
    "pose</w>": 1989,
    "sle": 1990,
    "heure</w>": 1991,
    "ows</w>": 1992,
    "peut-\u00eatre</w>": 1993,
    "char": 1994,
    "ad,</w>": 1995,
    "neur</w>": 1996,
    "right</w>": 1997,
    "sati": 1998,
    "xi": 1999,
    "fix": 2000,
    "aque</w>": 2001,
    "donc": 2002,
    "m\u00eame,</w>": 2003,
    "\u00e9cl": 2004,
    "see": 2005,
    "poor</w>": 2006,
    "fav": 2007,
    "D\u2019Artagnan</w>": 2008,
    "moment,</w>": 2009,
    "las": 2010,
    "Cap": 2011,
    "gard": 2012,
    "nom": 2013,
    "n'avait</w>": 2014,
    "entre": 2015,
    "ar,</w>": 2016,
    "life</w>": 2017,
    "ing-": 2018,
    "h\u00e9": 2019,
    "pieds</w>": 2020,
    "s'\u00e9tait</w>": 2021,
    "th.</w>": 2022,
    "bas": 2023,
    "consider": 2024,
    "quer</w>": 2025,
    "angl": 2026,
    "abo": 2027,
    "del": 2028,
    "perhap": 2029,
    "ton,</w>": 2030,
    "ps</w>": 2031,
    "confi": 2032,
    "eus": 2033,
    "Def": 2034,
    "Defarg": 2035,
    "a\u00eetre</w>": 2036,
    "\u00e9e.</w>": 2037,
    "laquelle</w>": 2038,
    "seul</w>": 2039,
    "terre</w>": 2040,
    "ously</w>": 2041,
    "pa": 2042,
    "air,</w>": 2043,
    "arr\u00eat": 2044,
    "dessu": 2045,
    "tiv": 2046,
    "sudd": 2047,
    "Mar": 2048,
    "able.</w>": 2049,
    "uni": 2050,
    "urn</w>": 2051,
    "fore": 2052,
    "going</w>": 2053,
    "vu</w>": 2054,
    "ins,</w>": 2055,
    "both</w>": 2056,
    "gri": 2057,
    "ich": 2058,
    "vos</w>": 2059,
    "bel": 2060,
    "return": 2061,
    "stood</w>": 2062,
    "ram": 2063,
    "souv": 2064,
    "imp": 2065,
    "\u00e9m": 2066,
    "ailleurs,</w>": 2067,
    ")</w>": 2068,
    "knew</w>": 2069,
    "ready</w>": 2070,
    "Oh,</w>": 2071,
    "engag": 2072,
    "\u00e2t": 2073,
    "pic": 2074,
    "sat</w>": 2075,
    "Porthos</w>": 2076,
    "per</w>": 2077,
    "half</w>": 2078,
    "whose</w>": 2079,
    "ance.</w>": 2080,
    "surpris": 2081,
    "tran": 2082,
    "n\u2019t</w>": 2083,
    "faisait</w>": 2084,
    "Cependant,</w>": 2085,
    "ois": 2086,
    "sent</w>": 2087,
    "rather</w>": 2088,
    "trac": 2089,
    "own,</w>": 2090,
    "clu": 2091,
    "Lu": 2092,
    "father</w>": 2093,
    "ouse,</w>": 2094,
    "id\u00e9": 2095,
    "ters</w>": 2096,
    "natur": 2097,
    "that,</w>": 2098,
    ".\u2019</w>": 2099,
    "Non,</w>": 2100,
    "qu'on</w>": 2101,
    "aim": 2102,
    "ence.</w>": 2103,
    "illes</w>": 2104,
    "tement</w>": 2105,
    "s'il</w>": 2106,
    "however,</w>": 2107,
    "sy": 2108,
    "\u201cIt</w>": 2109,
    "ll</w>": 2110,
    "boat": 2111,
    "enco": 2112,
    "sieurs</w>": 2113,
    "premier</w>": 2114,
    "pauv": 2115,
    "hard": 2116,
    "imag": 2117,
    "small</w>": 2118,
    "bon</w>": 2119,
    "eurs,</w>": 2120,
    "lais": 2121,
    "venu</w>": 2122,
    "l'in": 2123,
    "all,</w>": 2124,
    "white</w>": 2125,
    "ines</w>": 2126,
    "Su": 2127,
    "pow": 2128,
    "Aus": 2129,
    "sail": 2130,
    "Fel": 2131,
    "prend": 2132,
    "Granite-H": 2133,
    "ars</w>": 2134,
    "det": 2135,
    "dom": 2136,
    "one": 2137,
    "vie</w>": 2138,
    "till</w>": 2139,
    "fortun": 2140,
    "find</w>": 2141,
    "age.</w>": 2142,
    "\u201cW": 2143,
    "semblait</w>": 2144,
    "ably</w>": 2145,
    "position</w>": 2146,
    "proj": 2147,
    "ingly</w>": 2148,
    "l'\u00e9": 2149,
    "lui-": 2150,
    "sho": 2151,
    "us,</w>": 2152,
    "che": 2153,
    "it;</w>": 2154,
    "ected</w>": 2155,
    "grand": 2156,
    "expl": 2157,
    "er;</w>": 2158,
    "sait</w>": 2159,
    "mind</w>": 2160,
    "satis": 2161,
    "ail</w>": 2162,
    "How</w>": 2163,
    "t;</w>": 2164,
    "r,</w>": 2165,
    "s?</w>": 2166,
    "homme,</w>": 2167,
    "known</w>": 2168,
    "sort</w>": 2169,
    "isto": 2170,
    "Smith,</w>": 2171,
    "fas": 2172,
    "run": 2173,
    "began</w>": 2174,
    "At</w>": 2175,
    "me;</w>": 2176,
    "mani": 2177,
    "ray": 2178,
    "-j": 2179,
    "cach": 2180,
    "time,</w>": 2181,
    "ide": 2182,
    "ud": 2183,
    "fond</w>": 2184,
    "Stu": 2185,
    "eau,</w>": 2186,
    "vit</w>": 2187,
    "nuit</w>": 2188,
    "c'\u00e9tait</w>": 2189,
    "m\u00e8t": 2190,
    "glo": 2191,
    "ordin": 2192,
    "puiss": 2193,
    "peop": 2194,
    "ains</w>": 2195,
    "march": 2196,
    "compagnons</w>": 2197,
    "sum": 2198,
    "ery</w>": 2199,
    "our,</w>": 2200,
    "ide</w>": 2201,
    "hur": 2202,
    "donner</w>": 2203,
    "aissait</w>": 2204,
    "peine</w>": 2205,
    "voulu": 2206,
    "vari": 2207,
    "apr": 2208,
    "aucun</w>": 2209,
    "os": 2210,
    "el,</w>": 2211,
    "premi\u00e8re</w>": 2212,
    "Nab</w>": 2213,
    "I,</w>": 2214,
    "secre": 2215,
    "convers": 2216,
    "aires</w>": 2217,
    "petit</w>": 2218,
    "mais,</w>": 2219,
    "taken</w>": 2220,
    "uli": 2221,
    "wif": 2222,
    "Benn": 2223,
    "called</w>": 2224,
    "ond": 2225,
    "trai": 2226,
    "ori": 2227,
    "u,</w>": 2228,
    "avais</w>": 2229,
    "ous,</w>": 2230,
    "again,</w>": 2231,
    "\u201cY": 2232,
    "Stubb": 2233,
    "lim": 2234,
    "now": 2235,
    "set</w>": 2236,
    "exam": 2237,
    "post": 2238,
    "ferm": 2239,
    "x.</w>": 2240,
    "ur,</w>": 2241,
    "condu": 2242,
    "vous": 2243,
    "tenir</w>": 2244,
    "presque</w>": 2245,
    "Milad": 2246,
    "age": 2247,
    "adv": 2248,
    "better</w>": 2249,
    "shor": 2250,
    "circ": 2251,
    "passed</w>": 2252,
    "inten": 2253,
    "Pl": 2254,
    "Quee": 2255,
    "Queeque": 2256,
    "mouv": 2257,
    "beso": 2258,
    "Ed": 2259,
    "bout</w>": 2260,
    "land": 2261,
    "euse</w>": 2262,
    "qu'un</w>": 2263,
    "ook</w>": 2264,
    "ess.</w>": 2265,
    "ering</w>": 2266,
    "hands</w>": 2267,
    "admir": 2268,
    "draw": 2269,
    "fou": 2270,
    "\u00f4te</w>": 2271,
    "Ville": 2272,
    "grav": 2273,
    "Go": 2274,
    "fin,</w>": 2275,
    "a-t-": 2276,
    "deli": 2277,
    "enough</w>": 2278,
    "daugh": 2279,
    "g,</w>": 2280,
    "pay": 2281,
    "lieu</w>": 2282,
    "second</w>": 2283,
    "ather": 2284,
    "ani": 2285,
    "harpo": 2286,
    "C\u2019est</w>": 2287,
    "montr": 2288,
    "y\u2019s</w>": 2289,
    "Barb": 2290,
    "cover": 2291,
    "tend": 2292,
    "comment</w>": 2293,
    "couver": 2294,
    "voil\u00e0</w>": 2295,
    "peri": 2296,
    "whether</w>": 2297,
    "rest</w>": 2298,
    "brought</w>": 2299,
    "day,</w>": 2300,
    "there,</w>": 2301,
    "quitt": 2302,
    "retourn": 2303,
    "Fran": 2304,
    "k.</w>": 2305,
    "goo": 2306,
    "table</w>": 2307,
    "tranqu": 2308,
    "habitu": 2309,
    "mer,</w>": 2310,
    "Ahab</w>": 2311,
    "dispar": 2312,
    "marin</w>": 2313,
    "differ": 2314,
    "ity,</w>": 2315,
    "visit": 2316,
    "ching</w>": 2317,
    "fell": 2318,
    "mit</w>": 2319,
    "ma\u00eet": 2320,
    "dessus</w>": 2321,
    "celle</w>": 2322,
    "ben": 2323,
    "hope</w>": 2324,
    "aller</w>": 2325,
    "regard</w>": 2326,
    "\u201cThe</w>": 2327,
    "ut,</w>": 2328,
    "eu,</w>": 2329,
    "aucune</w>": 2330,
    "tenait</w>": 2331,
    "croy": 2332,
    "because</w>": 2333,
    "Char": 2334,
    "often</w>": 2335,
    "_.</w>": 2336,
    "said,</w>": 2337,
    "Doc": 2338,
    "milli": 2339,
    "c\u2019": 2340,
    "ent\u00f4t</w>": 2341,
    "Harbert,</w>": 2342,
    "years</w>": 2343,
    "great": 2344,
    "Gr": 2345,
    "aine,</w>": 2346,
    "lequel</w>": 2347,
    "Quant</w>": 2348,
    "pauvre</w>": 2349,
    "jusqu'\u00e0</w>": 2350,
    "every": 2351,
    "nature</w>": 2352,
    "ours</w>": 2353,
    "ants,</w>": 2354,
    "cardinal</w>": 2355,
    "Votre</w>": 2356,
    "\u00e7on</w>": 2357,
    "travers</w>": 2358,
    "j'ai</w>": 2359,
    "does</w>": 2360,
    "ly.</w>": 2361,
    "say": 2362,
    "ck,</w>": 2363,
    "visi": 2364,
    "Au": 2365,
    "Engl": 2366,
    "famil": 2367,
    "nor</w>": 2368,
    "star": 2369,
    "Lord</w>": 2370,
    "Mo": 2371,
    "ie,</w>": 2372,
    "jou": 2373,
    "pr\u00e9sent": 2374,
    "Barbic": 2375,
    "fore,</w>": 2376,
    "reli": 2377,
    "fallait</w>": 2378,
    "ined</w>": 2379,
    "forc": 2380,
    "able": 2381,
    "employ": 2382,
    "out,</w>": 2383,
    "cherch": 2384,
    "d\u00e9r": 2385,
    "exac": 2386,
    "simp": 2387,
    "sever": 2388,
    "on;</w>": 2389,
    "sac": 2390,
    "ah": 2391,
    "horiz": 2392,
    "continua</w>": 2393,
    "est-\u00e0-": 2394,
    "elop": 2395,
    "gir": 2396,
    "marri": 2397,
    "commun": 2398,
    "question</w>": 2399,
    "endu": 2400,
    "mai": 2401,
    "doute</w>": 2402,
    "Que</w>": 2403,
    "asp": 2404,
    "particul": 2405,
    "terr": 2406,
    "ues</w>": 2407,
    "lend": 2408,
    "bur": 2409,
    "nec": 2410,
    "absolu": 2411,
    "thing": 2412,
    "room</w>": 2413,
    "stand</w>": 2414,
    "until</w>": 2415,
    "ait-": 2416,
    "\u00e2t</w>": 2417,
    "lendem": 2418,
    "near</w>": 2419,
    "nei": 2420,
    "e:</w>": 2421,
    "Alice</w>": 2422,
    "told</w>": 2423,
    "within</w>": 2424,
    "gave</w>": 2425,
    "now,</w>": 2426,
    "descend": 2427,
    "monde</w>": 2428,
    "gr\u00e9</w>": 2429,
    "Elle</w>": 2430,
    "chaque</w>": 2431,
    "lez</w>": 2432,
    "\u00e9cr": 2433,
    "excell": 2434,
    "succ": 2435,
    "et.</w>": 2436,
    "ward</w>": 2437,
    "sun": 2438,
    "mid": 2439,
    "g\u00e9n": 2440,
    "Edmon": 2441,
    "ection</w>": 2442,
    "pier": 2443,
    "ende": 2444,
    "pol": 2445,
    "pare": 2446,
    "roy": 2447,
    "seign": 2448,
    "ceux</w>": 2449,
    "sept</w>": 2450,
    "mann": 2451,
    "countr": 2452,
    "anything</w>": 2453,
    "\u00e8rement</w>": 2454,
    "lettre</w>": 2455,
    "h\u00f4t": 2456,
    "\u00e7a</w>": 2457,
    "aisse": 2458,
    "moyen</w>": 2459,
    "milles</w>": 2460,
    "ature</w>": 2461,
    "quit": 2462,
    "thou</w>": 2463,
    "eux.</w>": 2464,
    "ante,</w>": 2465,
    "ablement</w>": 2466,
    "r\u00e9p": 2467,
    "cinqu": 2468,
    "rus": 2469,
    "enly</w>": 2470,
    "fle": 2471,
    "perm</w>": 2472,
    "Lin": 2473,
    "chambre</w>": 2474,
    "manqu": 2475,
    "things</w>": 2476,
    "present</w>": 2477,
    "herself</w>": 2478,
    "anci": 2479,
    "day": 2480,
    "petite</w>": 2481,
    "surface</w>": 2482,
    "ques,</w>": 2483,
    "Canadi": 2484,
    "vingt-": 2485,
    "Pendant</w>": 2486,
    "thy</w>": 2487,
    "arm</w>": 2488,
    "nor": 2489,
    "so,</w>": 2490,
    "also</w>": 2491,
    "ente</w>": 2492,
    "fil": 2493,
    "temps,</w>": 2494,
    "approch": 2495,
    "Ces</w>": 2496,
    "ext</w>": 2497,
    "E</w>": 2498,
    "Maj": 2499,
    "traver": 2500,
    "ayant</w>": 2501,
    "nomb": 2502,
    "z-vous</w>": 2503,
    "personn": 2504,
    "aper\u00e7": 2505,
    "just": 2506,
    "tered</w>": 2507,
    "ening</w>": 2508,
    "door</w>": 2509,
    "ds,</w>": 2510,
    "donc,</w>": 2511,
    "b\u00e2ti": 2512,
    "done</w>": 2513,
    "ice,</w>": 2514,
    "opin": 2515,
    "people</w>": 2516,
    "met</w>": 2517,
    "So</w>": 2518,
    "rez</w>": 2519,
    "house</w>": 2520,
    "id</w>": 2521,
    "concer": 2522,
    "ra</w>": 2523,
    "est-\u00e0-dire</w>": 2524,
    "ma\u00eetre</w>": 2525,
    "erait</w>": 2526,
    "Darcy</w>": 2527,
    "has": 2528,
    "Majest": 2529,
    "quat": 2530,
    "mett": 2531,
    "est-ce</w>": 2532,
    "donn\u00e9</w>": 2533,
    "\u00eat</w>": 2534,
    "well": 2535,
    "ue,</w>": 2536,
    "spect": 2537,
    "Whal": 2538,
    "mieux</w>": 2539,
    "m\u00e9ri": 2540,
    "plusieurs</w>": 2541,
    "prot": 2542,
    "inqui": 2543,
    "corr": 2544,
    "aban": 2545,
    "perf": 2546,
    "wish</w>": 2547,
    "hear</w>": 2548,
    "ef</w>": 2549,
    "sli": 2550,
    "ceived</w>": 2551,
    "Pe": 2552,
    "quin": 2553,
    "accoun": 2554,
    "woo": 2555,
    "really</w>": 2556,
    "acqu": 2557,
    "que.</w>": 2558,
    "mettre</w>": 2559,
    "ader": 2560,
    "assur": 2561,
    "sions</w>": 2562,
    "myst": 2563,
    "z,</w>": 2564,
    "Cel": 2565,
    "mois</w>": 2566,
    "-je</w>": 2567,
    "poss": 2568,
    "ane,</w>": 2569,
    "caus": 2570,
    "bre</w>": 2571,
    "tent": 2572,
    "qu'\u00e0</w>": 2573,
    "esp\u00e8": 2574,
    "hus": 2575,
    "fully</w>": 2576,
    "ill,</w>": 2577,
    "since</w>": 2578,
    "swe": 2579,
    "ceed": 2580,
    "song": 2581,
    "mis</w>": 2582,
    "Sa</w>": 2583,
    "c\u00e9d": 2584,
    "sorte</w>": 2585,
    "Lincol": 2586,
    "foo": 2587,
    "ture</w>": 2588,
    "sim": 2589,
    "distance</w>": 2590,
    "Man": 2591,
    "bris": 2592,
    "Sain": 2593,
    "prouv": 2594,
    "Planch": 2595,
    "shar": 2596,
    "ank</w>": 2597,
    "journ": 2598,
    "Lorr": 2599,
    "doute,</w>": 2600,
    "it\u00e9,</w>": 2601,
    "rentr": 2602,
    "bien": 2603,
    "sure</w>": 2604,
    "wai": 2605,
    "circum": 2606,
    "bruit</w>": 2607,
    "Spilett,</w>": 2608,
    "ate,</w>": 2609,
    "chas": 2610,
    "\u201cAnd</w>": 2611,
    "ative</w>": 2612,
    "ans,</w>": 2613,
    "dea": 2614,
    "lac": 2615,
    "ante-": 2616,
    "soi": 2617,
    "ci</w>": 2618,
    "bil": 2619,
    "four</w>": 2620,
    "hy": 2621,
    "minutes</w>": 2622,
    "step": 2623,
    "re-": 2624,
    "frapp": 2625,
    "gens</w>": 2626,
    "demeur": 2627,
    "To</w>": 2628,
    "Son</w>": 2629,
    "quels</w>": 2630,
    "bient\u00f4t</w>": 2631,
    "les": 2632,
    "rememb": 2633,
    "full</w>": 2634,
    "strang": 2635,
    "soci": 2636,
    "aves</w>": 2637,
    "bless": 2638,
    "gal": 2639,
    "fen": 2640,
    "n\u00e9c": 2641,
    "\u00e9trang": 2642,
    "t\u00f4t</w>": 2643,
    "\u00e9tonn": 2644,
    "sais</w>": 2645,
    "\u00e9tais</w>": 2646,
    "\u00e9vi": 2647,
    "Cader": 2648,
    "Caderous": 2649,
    "course</w>": 2650,
    "immen": 2651,
    "conf": 2652,
    "oe": 2653,
    "passer</w>": 2654,
    "d\u00e9c": 2655,
    "l\u00e9g": 2656,
    "n\u2019est</w>": 2657,
    "enfin</w>": 2658,
    "Candide</w>": 2659,
    "qu'elle</w>": 2660,
    "Ly": 2661,
    "lang": 2662,
    "tened</w>": 2663,
    "coming</w>": 2664,
    "dim": 2665,
    "atte": 2666,
    "\u00e9ment</w>": 2667,
    "was,</w>": 2668,
    "used</w>": 2669,
    "read": 2670,
    "lay</w>": 2671,
    "force</w>": 2672,
    "ali": 2673,
    "veill": 2674,
    "i!</w>": 2675,
    "Puis,</w>": 2676,
    "\u00e8re.</w>": 2677,
    "commen": 2678,
    "oubli": 2679,
    "souff": 2680,
    "Wick": 2681,
    "Coll": 2682,
    "spec": 2683,
    "),</w>": 2684,
    "ept</w>": 2685,
    "dor": 2686,
    "mang": 2687,
    "Holmes</w>": 2688,
    "neu": 2689,
    "intel": 2690,
    "but,</w>": 2691,
    "Ne": 2692,
    "believe</w>": 2693,
    "t\u00eat": 2694,
    "name</w>": 2695,
    "convic": 2696,
    "ang</w>": 2697,
    "b</w>": 2698,
    "s\u2014": 2699,
    "urt": 2700,
    "porter</w>": 2701,
    "trouva</w>": 2702,
    "qua</w>": 2703,
    "bonne</w>": 2704,
    "l'ing\u00e9nieur</w>": 2705,
    "ded,</w>": 2706,
    "ermin": 2707,
    "repli": 2708,
    "to-": 2709,
    "leng": 2710,
    "vic": 2711,
    "embr": 2712,
    "lieu": 2713,
    "demi-": 2714,
    "kind</w>": 2715,
    "lik": 2716,
    "medi": 2717,
    "ca": 2718,
    "condi": 2719,
    "spr": 2720,
    "\u201cNo": 2721,
    "p\u00e2": 2722,
    "Starb": 2723,
    "puisque</w>": 2724,
    "sometimes</w>": 2725,
    "ged</w>": 2726,
    "sole": 2727,
    "business</w>": 2728,
    "Now,</w>": 2729,
    "next</w>": 2730,
    "sed,</w>": 2731,
    "ents,</w>": 2732,
    "night,</w>": 2733,
    "Or,</w>": 2734,
    "franch": 2735,
    "\u00e9tu": 2736,
    "tourn": 2737,
    "a\u00een": 2738,
    "prisonni": 2739,
    "case</w>": 2740,
    "usu": 2741,
    "cat": 2742,
    "nam": 2743,
    "e,\u201d</w>": 2744,
    "s:</w>": 2745,
    "ick</w>": 2746,
    "black</w>": 2747,
    "aun": 2748,
    "commenc": 2749,
    "ires</w>": 2750,
    "ons.</w>": 2751,
    "sea</w>": 2752,
    "chac": 2753,
    "vingt</w>": 2754,
    "endro": 2755,
    "fr\u00e9": 2756,
    "crain": 2757,
    "difficul": 2758,
    "ve,</w>": 2759,
    "after": 2760,
    "say,</w>": 2761,
    "route</w>": 2762,
    "aux,</w>": 2763,
    "\u00e9chapp": 2764,
    "andis</w>": 2765,
    "vue</w>": 2766,
    "a-t-il</w>": 2767,
    "D'": 2768,
    "n'en</w>": 2769,
    "l'ing\u00e9nieur,</w>": 2770,
    "ham</w>": 2771,
    "sist": 2772,
    "ome</w>": 2773,
    "0</w>": 2774,
    "ite,</w>": 2775,
    "obser": 2776,
    "pir": 2777,
    "gol": 2778,
    "sorti": 2779,
    "sauv": 2780,
    "ordre</w>": 2781,
    "-je,</w>": 2782,
    "bras</w>": 2783,
    "ward": 2784,
    "ended</w>": 2785,
    "ine.</w>": 2786,
    "use</w>": 2787,
    "els</w>": 2788,
    "keep</w>": 2789,
    "heart</w>": 2790,
    "cid": 2791,
    "That</w>": 2792,
    "strange</w>": 2793,
    "port</w>": 2794,
    "era</w>": 2795,
    "extr\u00ea": 2796,
    "boo": 2797,
    "perhaps</w>": 2798,
    "least</w>": 2799,
    "den": 2800,
    "self.</w>": 2801,
    "appear": 2802,
    "aise</w>": 2803,
    "ignor": 2804,
    "ght.</w>": 2805,
    "n,</w>": 2806,
    "ross</w>": 2807,
    "\u201cS": 2808,
    "obs": 2809,
    "util": 2810,
    "forme</w>": 2811,
    "ique</w>": 2812,
    "plais": 2813,
    "mauv": 2814,
    "esp\u00e9r": 2815,
    "int\u00e9ri": 2816,
    "f,</w>": 2817,
    "thous": 2818,
    "morn": 2819,
    "gone</w>": 2820,
    "aking</w>": 2821,
    "asked</w>": 2822,
    "held</w>": 2823,
    "up,</w>": 2824,
    "coul": 2825,
    "belle</w>": 2826,
    "work</w>": 2827,
    "struc": 2828,
    "excep": 2829,
    "Wi": 2830,
    "thus</w>": 2831,
    "father": 2832,
    "tude</w>": 2833,
    "isi": 2834,
    "ch\u00e9</w>": 2835,
    "mains</w>": 2836,
    "sommes</w>": 2837,
    "\u00e9lev": 2838,
    "hand,</w>": 2839,
    "dge</w>": 2840,
    "friend</w>": 2841,
    "leave</w>": 2842,
    "\u201cH": 2843,
    "sult": 2844,
    "project": 2845,
    "rencontr": 2846,
    "jeun": 2847,
    "\u00e9;</w>": 2848,
    "c\u2019\u00e9tait</w>": 2849,
    "cela,</w>": 2850,
    "qu'une</w>": 2851,
    "conse": 2852,
    "conven": 2853,
    "kind": 2854,
    "high</w>": 2855,
    "rel</w>": 2856,
    "oeu": 2857,
    "marin,</w>": 2858,
    "cent": 2859,
    "chap": 2860,
    "hol": 2861,
    "amis,</w>": 2862,
    "ajout": 2863,
    "hardly</w>": 2864,
    "ton": 2865,
    "sett": 2866,
    "eri": 2867,
    "be,</w>": 2868,
    "pit": 2869,
    "plain": 2870,
    "ress": 2871,
    "lam": 2872,
    "whale,</w>": 2873,
    "autour</w>": 2874,
    "qu\u2019\u00e0</w>": 2875,
    "vint</w>": 2876,
    "s\u00fb": 2877,
    "feu</w>": 2878,
    "ons-": 2879,
    "sup\u00e9ri": 2880,
    "voulait</w>": 2881,
    "them.</w>": 2882,
    "18": 2883,
    "blu": 2884,
    "flam": 2885,
    "c\u00f4te</w>": 2886,
    "\u00e8r": 2887,
    "naturel": 2888,
    "op\u00e9r": 2889,
    "sec": 2890,
    "tive</w>": 2891,
    "batt": 2892,
    "fig": 2893,
    "smil": 2894,
    "Captain</w>": 2895,
    "dit,</w>": 2896,
    "pr\u00e9cip": 2897,
    "\u00e9lo": 2898,
    "pas.</w>": 2899,
    "Ayrton</w>": 2900,
    "low": 2901,
    "sence</w>": 2902,
    "dark</w>": 2903,
    "smo": 2904,
    "nifi": 2905,
    "envir": 2906,
    "Mon</w>": 2907,
    "pouss": 2908,
    "trouver</w>": 2909,
    "jours,</w>": 2910,
    "Lydi": 2911,
    "feel</w>": 2912,
    "inqu": 2913,
    "ately</w>": 2914,
    "not": 2915,
    "head,</w>": 2916,
    "became</w>": 2917,
    "exis": 2918,
    "stri": 2919,
    "corps</w>": 2920,
    "Mad": 2921,
    "mour": 2922,
    "cav": 2923,
    "Dieu</w>": 2924,
    "pied</w>": 2925,
    "gr\u00e2": 2926,
    "coeur</w>": 2927,
    "standing</w>": 2928,
    "tor</w>": 2929,
    "way,</w>": 2930,
    "ves": 2931,
    "matter</w>": 2932,
    "ge,</w>": 2933,
    "esse": 2934,
    "murmur": 2935,
    "along</w>": 2936,
    "puis,</w>": 2937,
    "vrai": 2938,
    "\u00e9cu": 2939,
    "profonde": 2940,
    "los": 2941,
    "dam": 2942,
    "days</w>": 2943,
    "word</w>": 2944,
    "already</w>": 2945,
    "read</w>": 2946,
    "he,</w>": 2947,
    "essay": 2948,
    "indre</w>": 2949,
    "tandis</w>": 2950,
    "love</w>": 2951,
    "subj": 2952,
    "returned</w>": 2953,
    "Do</w>": 2954,
    "\u201cWh": 2955,
    "ers.</w>": 2956,
    "why</w>": 2957,
    "room,</w>": 2958,
    "ound": 2959,
    "communic": 2960,
    "mes.</w>": 2961,
    "va</w>": 2962,
    "Pequo": 2963,
    "gouver": 2964,
    "personne</w>": 2965,
    "seule</w>": 2966,
    "tromp": 2967,
    "Tout</w>": 2968,
    "essai": 2969,
    "Aramis,</w>": 2970,
    "best</w>": 2971,
    "world</w>": 2972,
    "her.</w>": 2973,
    "ks,</w>": 2974,
    "ake</w>": 2975,
    "cop": 2976,
    "circumst": 2977,
    "erable</w>": 2978,
    "pan": 2979,
    "L\u2019": 2980,
    "ait.</w>": 2981,
    "inconn": 2982,
    "proch": 2983,
    "lumi": 2984,
    "malheu": 2985,
    "\u00e7ait</w>": 2986,
    "Aramis</w>": 2987,
    "jusqu'au</w>": 2988,
    "Per": 2989,
    "princi": 2990,
    "Bennet</w>": 2991,
    "laugh": 2992,
    "re!</w>": 2993,
    "several</w>": 2994,
    "vill": 2995,
    "posed</w>": 2996,
    "Ri": 2997,
    "dri": 2998,
    "es!</w>": 2999,
    "destin": 3000,
    "diam": 3001,
    "boat</w>": 3002,
    "dire,</w>": 3003,
    "\u00e9s.</w>": 3004,
    "encore,</w>": 3005,
    "navire</w>": 3006,
    "Milady,</w>": 3007,
    "kes</w>": 3008,
    "thir": 3009,
    "avou": 3010,
    "sau": 3011,
    "Bi": 3012,
    "grands</w>": 3013,
    "bord</w>": 3014,
    "endu</w>": 3015,
    "either</w>": 3016,
    "olo": 3017,
    "bul": 3018,
    "But,</w>": 3019,
    "pron": 3020,
    "behind</w>": 3021,
    "osit": 3022,
    "wher": 3023,
    "imagin": 3024,
    "sir": 3025,
    "Cl": 3026,
    "ping</w>": 3027,
    "termin": 3028,
    "II": 3029,
    "feet</w>": 3030,
    "aille</w>": 3031,
    "lorsque</w>": 3032,
    "jour,</w>": 3033,
    "Dant\u00e8s,</w>": 3034,
    "c'est-\u00e0-dire</w>": 3035,
    "charac": 3036,
    "means</w>": 3037,
    "ited</w>": 3038,
    "manner</w>": 3039,
    "speak</w>": 3040,
    "ref": 3041,
    "land</w>": 3042,
    "deman": 3043,
    "amis</w>": 3044,
    "plut\u00f4t</w>": 3045,
    "envoy": 3046,
    "terre,</w>": 3047,
    "aient,</w>": 3048,
    "viend": 3049,
    "Spilett</w>": 3050,
    "words</w>": 3051,
    "jur": 3052,
    "ound,</w>": 3053,
    "you.</w>": 3054,
    "publi": 3055,
    "sion,</w>": 3056,
    "reven": 3057,
    "bord": 3058,
    "aussit": 3059,
    "rai</w>": 3060,
    "Quel": 3061,
    "cependant</w>": 3062,
    "heures,</w>": 3063,
    "want</w>": 3064,
    "mort": 3065,
    "rely</w>": 3066,
    "liber": 3067,
    "face,</w>": 3068,
    "vice</w>": 3069,
    "So": 3070,
    "win": 3071,
    "dn\u2019t</w>": 3072,
    "vient</w>": 3073,
    "Conseil</w>": 3074,
    "d\u00e9v": 3075,
    "re\u00e7": 3076,
    "eusement</w>": 3077,
    "Conseil,</w>": 3078,
    "All</w>": 3079,
    "impossible</w>": 3080,
    "Elizabeth,</w>": 3081,
    "d\u2019s</w>": 3082,
    "ens,</w>": 3083,
    "ver,</w>": 3084,
    "eu!</w>": 3085,
    "gr\u00e9": 3086,
    "p\u00ea": 3087,
    "new": 3088,
    "e.\u201d</w>": 3089,
    "ger</w>": 3090,
    "accor": 3091,
    "fort,</w>": 3092,
    "hold</w>": 3093,
    "re?</w>": 3094,
    "terrible</w>": 3095,
    "urs</w>": 3096,
    "antes</w>": 3097,
    "Buck": 3098,
    "Bucking": 3099,
    "suivant</w>": 3100,
    "trop": 3101,
    "pec": 3102,
    "taking</w>": 3103,
    "occasi": 3104,
    "sister</w>": 3105,
    "pursu": 3106,
    "n\u2019y</w>": 3107,
    "\u00e9cout": 3108,
    "ri\u00e8re</w>": 3109,
    "Bonacieux</w>": 3110,
    "which,</w>": 3111,
    "given</w>": 3112,
    "qual": 3113,
    "open</w>": 3114,
    "Then</w>": 3115,
    "antly</w>": 3116,
    "collec": 3117,
    "was": 3118,
    "tice</w>": 3119,
    "call</w>": 3120,
    "front</w>": 3121,
    "bed</w>": 3122,
    "aign": 3123,
    "maintenant</w>": 3124,
    "num": 3125,
    "prim": 3126,
    "ing;</w>": 3127,
    "incl": 3128,
    "what": 3129,
    "this,</w>": 3130,
    "rup": 3131,
    "anxi": 3132,
    "unc": 3133,
    "sig": 3134,
    "air.</w>": 3135,
    "tour</w>": 3136,
    "malgr\u00e9</w>": 3137,
    "neuf</w>": 3138,
    "l'O": 3139,
    "four": 3140,
    "knowle": 3141,
    "Lady</w>": 3142,
    "idea</w>": 3143,
    "tions,</w>": 3144,
    "lost</w>": 3145,
    "Re": 3146,
    "lit</w>": 3147,
    "\u00e8ne</w>": 3148,
    "l'A": 3149,
    "dernier</w>": 3150,
    "oeil</w>": 3151,
    "scen": 3152,
    "consci": 3153,
    "ball": 3154,
    "err": 3155,
    "wonder": 3156,
    "----": 3157,
    "morning</w>": 3158,
    "whis": 3159,
    "de;</w>": 3160,
    "ple,</w>": 3161,
    "agit": 3162,
    "au-dessus</w>": 3163,
    "hard</w>": 3164,
    "bly</w>": 3165,
    "sensi": 3166,
    "reason</w>": 3167,
    "\u201cBut</w>": 3168,
    "attention</w>": 3169,
    "irs</w>": 3170,
    "silence</w>": 3171,
    "ats</w>": 3172,
    "bloo": 3173,
    "appare": 3174,
    "qu\u2019un</w>": 3175,
    "autant</w>": 3176,
    "oui,</w>": 3177,
    "ssent</w>": 3178,
    "Granite-Hou": 3179,
    "him;</w>": 3180,
    "mean": 3181,
    "ner": 3182,
    "Her</w>": 3183,
    "or.</w>": 3184,
    "shad": 3185,
    "ore": 3186,
    "suite</w>": 3187,
    "Ain": 3188,
    "Lorry</w>": 3189,
    "nouveau</w>": 3190,
    "sais": 3191,
    "g\u00e9n\u00e9r": 3192,
    "celui-": 3193,
    "r\u00e9pond": 3194,
    "cinquante</w>": 3195,
    "exist": 3196,
    "With</w>": 3197,
    "fall": 3198,
    "end,</w>": 3199,
    "ivil": 3200,
    "suddenly</w>": 3201,
    "Co": 3202,
    "passa</w>": 3203,
    "crois</w>": 3204,
    "ami,</w>": 3205,
    "ly": 3206,
    "husb": 3207,
    "ise,</w>": 3208,
    "way": 3209,
    "ask</w>": 3210,
    "ages,</w>": 3211,
    "tte</w>": 3212,
    "simple</w>": 3213,
    "er\u2019s</w>": 3214,
    "thousand</w>": 3215,
    "sight</w>": 3216,
    "ates</w>": 3217,
    "influ": 3218,
    "repe": 3219,
    "phy": 3220,
    "lett": 3221,
    "facil": 3222,
    "mal</w>": 3223,
    "liqu": 3224,
    "c\u00f4t\u00e9</w>": 3225,
    "chacun</w>": 3226,
    "signe</w>": 3227,
    "mort</w>": 3228,
    "trouv\u00e9</w>": 3229,
    "Merc": 3230,
    "Edmond</w>": 3231,
    "necess": 3232,
    "lou": 3233,
    "too,</w>": 3234,
    "during</w>": 3235,
    "inform": 3236,
    "happy</w>": 3237,
    "rapi": 3238,
    "rejo": 3239,
    "volu": 3240,
    "tout,</w>": 3241,
    "coups</w>": 3242,
    "abord</w>": 3243,
    "cours</w>": 3244,
    "\u00c9min": 3245,
    "iez</w>": 3246,
    "cardinal,</w>": 3247,
    "bois</w>": 3248,
    "sous": 3249,
    "fiel": 3250,
    "but": 3251,
    "aring</w>": 3252,
    "human</w>": 3253,
    "ingu": 3254,
    "ts.</w>": 3255,
    "help</w>": 3256,
    "ager</w>": 3257,
    "ble.</w>": 3258,
    "voice</w>": 3259,
    "offici": 3260,
    "cap</w>": 3261,
    "ea</w>": 3262,
    "fin</w>": 3263,
    "mouvement</w>": 3264,
    "\u00e9nor": 3265,
    "afin</w>": 3266,
    "Dangl": 3267,
    "l'un</w>": 3268,
    "l'abb": 3269,
    "Jane</w>": 3270,
    "fied</w>": 3271,
    "lad": 3272,
    "making</w>": 3273,
    "oblig": 3274,
    "appeared</w>": 3275,
    "pped</w>": 3276,
    "\u2014the</w>": 3277,
    "Cart": 3278,
    "Porthos,</w>": 3279,
    "perdu": 3280,
    "besoin</w>": 3281,
    "oute": 3282,
    "place,</w>": 3283,
    "ences</w>": 3284,
    "live</w>": 3285,
    "ness,</w>": 3286,
    "One</w>": 3287,
    "fati": 3288,
    "covered</w>": 3289,
    "rapid": 3290,
    "wee": 3291,
    "ext": 3292,
    "examin": 3293,
    "lati": 3294,
    "donna</w>": 3295,
    "Fern": 3296,
    "issant</w>": 3297,
    "fait,</w>": 3298,
    "parfai": 3299,
    "soir,</w>": 3300,
    "n\u00e9cessai": 3301,
    "se;</w>": 3302,
    "nau": 3303,
    "shoul": 3304,
    "impati": 3305,
    "embl": 3306,
    "soli": 3307,
    "passage</w>": 3308,
    "des,</w>": 3309,
    "feu": 3310,
    "pr\u00e9cipit": 3311,
    "plus,</w>": 3312,
    "aura</w>": 3313,
    "ty": 3314,
    "de-": 3315,
    "seem</w>": 3316,
    "moun": 3317,
    "conclu": 3318,
    "bit": 3319,
    "deep": 3320,
    "pent": 3321,
    "parut</w>": 3322,
    "chercher</w>": 3323,
    "soix": 3324,
    "relev": 3325,
    "Nab,</w>": 3326,
    "doubt</w>": 3327,
    "sto": 3328,
    "Bingley</w>": 3329,
    "No</w>": 3330,
    "conversation</w>": 3331,
    "together</w>": 3332,
    "ments</w>": 3333,
    "close</w>": 3334,
    "mov": 3335,
    "sive</w>": 3336,
    "trouver": 3337,
    "gagn": 3338,
    "heur</w>": 3339,
    "apr\u00e8s,</w>": 3340,
    "pouvaient</w>": 3341,
    "s\u00e9par": 3342,
    "consid\u00e9r": 3343,
    "stu": 3344,
    "ce,</w>": 3345,
    "turn</w>": 3346,
    "ack,</w>": 3347,
    "Lou": 3348,
    "o.</w>": 3349,
    "den</w>": 3350,
    "fing": 3351,
    "quip": 3352,
    "atmo": 3353,
    "atmosp": 3354,
    "vap": 3355,
    "oeuv": 3356,
    "particu": 3357,
    "n\u2019avait</w>": 3358,
    "taine</w>": 3359,
    "guer": 3360,
    "quinze</w>": 3361,
    "ennem": 3362,
    "connaiss": 3363,
    "s'\u00e9t": 3364,
    "certainly</w>": 3365,
    "accep": 3366,
    "one.</w>": 3367,
    "general</w>": 3368,
    "impres": 3369,
    "ach</w>": 3370,
    "sion": 3371,
    "want": 3372,
    "ass</w>": 3373,
    "?\u2019</w>": 3374,
    "trembl": 3375,
    "mau": 3376,
    "madame,</w>": 3377,
    "Dans</w>": 3378,
    "particuli": 3379,
    "a\u00eet</w>": 3380,
    "n\u2019\u00e9tait</w>": 3381,
    "croire</w>": 3382,
    "Pencroff.</w>": 3383,
    "cked</w>": 3384,
    "inv": 3385,
    "other,</w>": 3386,
    "a;</w>": 3387,
    "here,</w>": 3388,
    "struck</w>": 3389,
    "super": 3390,
    "les,</w>": 3391,
    "strong</w>": 3392,
    "fs</w>": 3393,
    "Av": 3394,
    "ami</w>": 3395,
    "maison</w>": 3396,
    "derri\u00e8re</w>": 3397,
    "eussent</w>": 3398,
    "mani\u00e8re</w>": 3399,
    "Nemo,</w>": 3400,
    "intellig": 3401,
    "side,</w>": 3402,
    "themsel": 3403,
    "ent;</w>": 3404,
    "\u201cOh,</w>": 3405,
    "illi": 3406,
    "slow": 3407,
    "soup": 3408,
    "frag": 3409,
    "cr\u00e9": 3410,
    "erai</w>": 3411,
    "s\u00e9qu": 3412,
    "Tr\u00e9ville</w>": 3413,
    "devaient</w>": 3414,
    "choses</w>": 3415,
    "gue</w>": 3416,
    "thing,</w>": 3417,
    "walked</w>": 3418,
    "gau": 3419,
    "it\u2019s</w>": 3420,
    "ga": 3421,
    "obscur": 3422,
    "lui.</w>": 3423,
    "pr\u00e9par": 3424,
    "hors</w>": 3425,
    "compt": 3426,
    "wise</w>": 3427,
    "natural</w>": 3428,
    "immedi": 3429,
    "ic</w>": 3430,
    "Let</w>": 3431,
    "man.</w>": 3432,
    "is;</w>": 3433,
    "stop": 3434,
    "abri": 3435,
    "Monseign": 3436,
    "ellement</w>": 3437,
    "?\u00bb</w>": 3438,
    "alors,</w>": 3439,
    "seems</w>": 3440,
    "present": 3441,
    "ond</w>": 3442,
    "back": 3443,
    "horri": 3444,
    "Pro": 3445,
    "acquain": 3446,
    "\u201cWhat</w>": 3447,
    "plan": 3448,
    "kept</w>": 3449,
    "portait</w>": 3450,
    "cons\u00e9qu": 3451,
    "suffis": 3452,
    "\u00eatre,</w>": 3453,
    "honn": 3454,
    "Sans</w>": 3455,
    "\u00e9loign": 3456,
    "Morrel</w>": 3457,
    "stor": 3458,
    "descri": 3459,
    "night": 3460,
    "figure</w>": 3461,
    "bott": 3462,
    "ms</w>": 3463,
    "tenant</w>": 3464,
    "beau</w>": 3465,
    "semble</w>": 3466,
    "\u00e9di": 3467,
    "rendre</w>": 3468,
    "Cela</w>": 3469,
    "arr\u00ea": 3470,
    "capitaine,</w>": 3471,
    "Angl": 3472,
    "\u00eele</w>": 3473,
    "m\u00e8tres</w>": 3474,
    "aste</w>": 3475,
    "woman</w>": 3476,
    "five</w>": 3477,
    "din": 3478,
    "dul": 3479,
    "mer.</w>": 3480,
    "asc": 3481,
    "tir</w>": 3482,
    "ches,</w>": 3483,
    "cad": 3484,
    "bles</w>": 3485,
    "blanch": 3486,
    "Des</w>": 3487,
    "J\u2019": 3488,
    "p\u00e9n": 3489,
    "above</w>": 3490,
    "itting</w>": 3491,
    "us.</w>": 3492,
    "anced</w>": 3493,
    "Ju": 3494,
    "expression</w>": 3495,
    "seeing</w>": 3496,
    "situation</w>": 3497,
    "am,</w>": 3498,
    "lin": 3499,
    "seiz": 3500,
    "brave</w>": 3501,
    "fum": 3502,
    "Madame</w>": 3503,
    "lanc": 3504,
    "Sperm</w>": 3505,
    "autre,</w>": 3506,
    "l\u2019on</w>": 3507,
    "poiss": 3508,
    "l'\u00eele,</w>": 3509,
    "pat": 3510,
    "short</w>": 3511,
    "Cather": 3512,
    "family</w>": 3513,
    "intro": 3514,
    "accompl": 3515,
    "Po": 3516,
    "ute</w>": 3517,
    "crow": 3518,
    "lun": 3519,
    "!\u2014": 3520,
    "emp\u00ea": 3521,
    "savoir</w>": 3522,
    "aie</w>": 3523,
    "vig": 3524,
    "regre": 3525,
    "pain": 3526,
    "remark": 3527,
    "agre": 3528,
    "cas</w>": 3529,
    "remained</w>": 3530,
    "stair": 3531,
    "tence</w>": 3532,
    "creatu": 3533,
    "affaire</w>": 3534,
    "whales</w>": 3535,
    "uns</w>": 3536,
    "Land</w>": 3537,
    "Darn": 3538,
    "Apr\u00e8s</w>": 3539,
    "qu\u2019ils</w>": 3540,
    "port\u00e9</w>": 3541,
    "porte,</w>": 3542,
    "an\u00e7a</w>": 3543,
    "Saint-": 3544,
    "pourquoi</w>": 3545,
    "Felton</w>": 3546,
    "fine</w>": 3547,
    "letter</w>": 3548,
    "\u201cMy</w>": 3549,
    "lie</w>": 3550,
    "Un": 3551,
    "branch": 3552,
    "eless</w>": 3553,
    "re:</w>": 3554,
    "direction</w>": 3555,
    "I\u2019ll</w>": 3556,
    "amment</w>": 3557,
    "haut</w>": 3558,
    "lendemain,</w>": 3559,
    "gr\u00e2ce</w>": 3560,
    "soir</w>": 3561,
    "r\u00e9solu": 3562,
    "Cun": 3563,
    "l'\u00e9t": 3564,
    "peculi": 3565,
    "lot</w>": 3566,
    "coff": 3567,
    "bir": 3568,
    "down": 3569,
    "\u201cand</w>": 3570,
    "mus": 3571,
    "\u00e9clat": 3572,
    "strai": 3573,
    "car,</w>": 3574,
    "roll": 3575,
    "Paci": 3576,
    "te.</w>": 3577,
    "roi,</w>": 3578,
    "mot</w>": 3579,
    "gar\u00e7": 3580,
    "matin,</w>": 3581,
    "id\u00e9e</w>": 3582,
    "Top</w>": 3583,
    "comb": 3584,
    "ney</w>": 3585,
    "cous": 3586,
    "tl": 3587,
    "charm": 3588,
    "sister": 3589,
    "cas,</w>": 3590,
    "advent": 3591,
    "wild</w>": 3592,
    "observer</w>": 3593,
    "illed</w>": 3594,
    "vin": 3595,
    "soul": 3596,
    "monst": 3597,
    "Doctor</w>": 3598,
    "magnifi": 3599,
    "main,</w>": 3600,
    "d\u2019Artagnan": 3601,
    "s\u2019il</w>": 3602,
    "d\u2019Artagnan.</w>": 3603,
    "i;</w>": 3604,
    "sous-": 3605,
    "s'en": 3606,
    "common</w>": 3607,
    "pend": 3608,
    "ars,</w>": 3609,
    "dred</w>": 3610,
    "change</w>": 3611,
    "beaut": 3612,
    "flu": 3613,
    "invit": 3614,
    "wards</w>": 3615,
    "ety</w>": 3616,
    "table,</w>": 3617,
    "elo": 3618,
    "ations,</w>": 3619,
    "mers</w>": 3620,
    "x-": 3621,
    "harpoone": 3622,
    "Mart": 3623,
    "tes,</w>": 3624,
    "derni\u00e8re</w>": 3625,
    "souvent</w>": 3626,
    "parler</w>": 3627,
    "savait</w>": 3628,
    "avant": 3629,
    "voyait</w>": 3630,
    "Alors</w>": 3631,
    "v\u00e9ritable</w>": 3632,
    "urent</w>": 3633,
    "\u00e9gon": 3634,
    "Col": 3635,
    "fol": 3636,
    "secret</w>": 3637,
    "ear</w>": 3638,
    "exer": 3639,
    "\u201cthat</w>": 3640,
    "For": 3641,
    "Af": 3642,
    "war": 3643,
    "ette,</w>": 3644,
    "hed</w>": 3645,
    "rue</w>": 3646,
    "nouvelle</w>": 3647,
    "espo": 3648,
    "endroit</w>": 3649,
    "aujour": 3650,
    "l\u00e0": 3651,
    "l\u00e8v": 3652,
    "Comme</w>": 3653,
    "plong": 3654,
    "Cun\u00e9gon": 3655,
    "CH": 3656,
    "busin": 3657,
    "Her": 3658,
    "content": 3659,
    "tum": 3660,
    "again.</w>": 3661,
    "oned</w>": 3662,
    "vain": 3663,
    "inging</w>": 3664,
    "ings,</w>": 3665,
    "le;</w>": 3666,
    "ounded</w>": 3667,
    "Li": 3668,
    "e\u2014": 3669,
    "Gri": 3670,
    "bale": 3671,
    "Jac": 3672,
    "esprit</w>": 3673,
    "honneur</w>": 3674,
    "avent": 3675,
    "d\u00e8s</w>": 3676,
    "pass\u00e9</w>": 3677,
    "rien,</w>": 3678,
    "l'Oc\u00e9": 3679,
    "comple": 3680,
    "feelings</w>": 3681,
    "reh": 3682,
    "ity.</w>": 3683,
    "f-": 3684,
    "followed</w>": 3685,
    "home</w>": 3686,
    "received</w>": 3687,
    "opened</w>": 3688,
    "carried</w>": 3689,
    "blo": 3690,
    "alli": 3691,
    "then": 3692,
    "dead</w>": 3693,
    "immense</w>": 3694,
    "reten": 3695,
    "moins,</w>": 3696,
    "Tr\u00e9ville,</w>": 3697,
    "\u2026</w>": 3698,
    "accompagn": 3699,
    "chemin</w>": 3700,
    "qu\u00e9</w>": 3701,
    "circonst": 3702,
    "reine</w>": 3703,
    "ici,</w>": 3704,
    "dis-je,</w>": 3705,
    "\u00e9clair": 3706,
    "--Oui,</w>": 3707,
    "lady</w>": 3708,
    "m,</w>": 3709,
    "dies</w>": 3710,
    "eyes,</w>": 3711,
    "dly</w>": 3712,
    "By</w>": 3713,
    "determin": 3714,
    "sound</w>": 3715,
    "ard.</w>": 3716,
    "grap": 3717,
    "sea,</w>": 3718,
    "Str": 3719,
    "Luci": 3720,
    "Whale</w>": 3721,
    "explor": 3722,
    "gentil": 3723,
    "\u00e8n": 3724,
    "\u00e9pau": 3725,
    "jeta</w>": 3726,
    "m\u2019a</w>": 3727,
    "quelles</w>": 3728,
    "for\u00ea": 3729,
    "itted</w>": 3730,
    "ven</w>": 3731,
    "l,</w>": 3732,
    "hundred</w>": 3733,
    "ail,</w>": 3734,
    "ties</w>": 3735,
    "all.</w>": 3736,
    "sing</w>": 3737,
    "tur": 3738,
    "camp": 3739,
    "ER": 3740,
    "Alic": 3741,
    "sun</w>": 3742,
    "asses</w>": 3743,
    "reporter</w>": 3744,
    "jets</w>": 3745,
    "sold": 3746,
    "alement</w>": 3747,
    "histo": 3748,
    "aussit\u00f4t</w>": 3749,
    "Pour</w>": 3750,
    "ouvrit</w>": 3751,
    "courant</w>": 3752,
    "reuse</w>": 3753,
    "quement</w>": 3754,
    "plateau</w>": 3755,
    "professe": 3756,
    "tic</w>": 3757,
    "ect,</w>": 3758,
    "laid</w>": 3759,
    "men,</w>": 3760,
    "opinion</w>": 3761,
    "chance</w>": 3762,
    "rep": 3763,
    "colon": 3764,
    "month": 3765,
    "agon": 3766,
    "venge": 3767,
    "Holmes,</w>": 3768,
    "monsieur": 3769,
    "gouvern": 3770,
    "ailleurs</w>": 3771,
    "fourn": 3772,
    "s'y</w>": 3773,
    "Mast": 3774,
    "maj": 3775,
    "different</w>": 3776,
    "bey": 3777,
    "ious</w>": 3778,
    "deep</w>": 3779,
    "reflec": 3780,
    "st,</w>": 3781,
    "curiosit": 3782,
    "subst": 3783,
    "respon": 3784,
    "instant,</w>": 3785,
    "remon": 3786,
    "rout": 3787,
    "fat": 3788,
    "ent-": 3789,
    "Defarge</w>": 3790,
    "pr\u00e9t": 3791,
    "douze</w>": 3792,
    "reusement</w>": 3793,
    "d\u00fb": 3794,
    "atmosph": 3795,
    "l'air</w>": 3796,
    "_Nautilus_,</w>": 3797,
    "part,</w>": 3798,
    "noble</w>": 3799,
    "ron": 3800,
    "occasion</w>": 3801,
    "clam": 3802,
    "mother</w>": 3803,
    "After</w>": 3804,
    "sleep": 3805,
    "across</w>": 3806,
    "mati": 3807,
    "Ang": 3808,
    "messi": 3809,
    "\u00f4le</w>": 3810,
    "appu": 3811,
    "escal": 3812,
    "eure</w>": 3813,
    "vitesse</w>": 3814,
    "Dant\u00e8": 3815,
    "d'\u00eatre</w>": 3816,
    "l'horiz": 3817,
    "17": 3818,
    "abil": 3819,
    "inno": 3820,
    "assu": 3821,
    "Mich": 3822,
    "possible,</w>": 3823,
    "therefore,</w>": 3824,
    "\u201cWell,</w>": 3825,
    "living</w>": 3826,
    "voyage</w>": 3827,
    "Louis</w>": 3828,
    "au,</w>": 3829,
    "chal": 3830,
    "Nant": 3831,
    "Morrel": 3832,
    "\u00e9lec": 3833,
    "enne</w>": 3834,
    "laisser</w>": 3835,
    "disait</w>": 3836,
    "\u00e9ti": 3837,
    "Ard": 3838,
    "indeed</w>": 3839,
    "itself</w>": 3840,
    "sh</w>": 3841,
    "son,</w>": 3842,
    "turning</w>": 3843,
    "ele": 3844,
    "father,</w>": 3845,
    "hour</w>": 3846,
    "eye</w>": 3847,
    "offic": 3848,
    "cam": 3849,
    "iles</w>": 3850,
    "symp": 3851,
    "deser": 3852,
    "leg": 3853,
    "fish": 3854,
    "centr": 3855,
    "Starbuck": 3856,
    "vis</w>": 3857,
    "Crun": 3858,
    "franc": 3859,
    "Kurt": 3860,
    "reur</w>": 3861,
    "rappel": 3862,
    "duc</w>": 3863,
    "beaucoup</w>": 3864,
    "aires,</w>": 3865,
    "dit-il</w>": 3866,
    "\u00e9r\u00e9": 3867,
    "fa\u00e7on</w>": 3868,
    "pr\u00ea": 3869,
    "r\u00ea": 3870,
    "Candide,</w>": 3871,
    "Merc\u00e9d": 3872,
    "s'\u00e9taient</w>": 3873,
    "distinc": 3874,
    "narr": 3875,
    "cut": 3876,
    "wife</w>": 3877,
    "degre": 3878,
    "s.\u201d</w>": 3879,
    "agg": 3880,
    "former</w>": 3881,
    "line</w>": 3882,
    "scar": 3883,
    "menti": 3884,
    "indeed,</w>": 3885,
    "compos": 3886,
    "length</w>": 3887,
    "pati": 3888,
    "animal</w>": 3889,
    "bow": 3890,
    "iture</w>": 3891,
    "prud": 3892,
    "aded</w>": 3893,
    "water</w>": 3894,
    "org": 3895,
    "tr\u00e9": 3896,
    "retir": 3897,
    "Voy": 3898,
    "Nantuck": 3899,
    "surtout</w>": 3900,
    "degr\u00e9": 3901,
    "voyant</w>": 3902,
    "r\u00e9sult": 3903,
    "s\u2019\u00e9tait</w>": 3904,
    "\u00e9p\u00e9e</w>": 3905,
    "Sur</w>": 3906,
    "fallu": 3907,
    "trouvait</w>": 3908,
    "soleil</w>": 3909,
    "r\u00e9pli": 3910,
    "hauteur</w>": 3911,
    "animaux</w>": 3912,
    "l'avait</w>": 3913,
    "d'ailleurs,</w>": 3914,
    "d'eau</w>": 3915,
    "Villefort</w>": 3916,
    "decl": 3917,
    "ession</w>": 3918,
    "\u201cA": 3919,
    "sens": 3920,
    "horr": 3921,
    "whale-": 3922,
    "-C": 3923,
    "pr\u00e9si": 3924,
    "\u00abM": 3925,
    "cheval</w>": 3926,
    "lui-m\u00eame</w>": 3927,
    "laissa</w>": 3928,
    "cout": 3929,
    "trent": 3930,
    "rivi": 3931,
    "l'eau</w>": 3932,
    "tric": 3933,
    "equ": 3934,
    "himself,</w>": 3935,
    "s\u2019</w>": 3936,
    "replied</w>": 3937,
    "heart": 3938,
    "princip": 3939,
    "conce": 3940,
    "All": 3941,
    "St.</w>": 3942,
    "tim": 3943,
    "als</w>": 3944,
    "ied</w>": 3945,
    "ites</w>": 3946,
    "vag": 3947,
    "sang": 3948,
    "AP": 3949,
    "aux": 3950,
    "veux</w>": 3951,
    "\u00e9po": 3952,
    "eux-": 3953,
    "doit</w>": 3954,
    "volon": 3955,
    "faite</w>": 3956,
    "pr\u00e9sence</w>": 3957,
    "lever</w>": 3958,
    "voule": 3959,
    "voulu</w>": 3960,
    "s'ag": 3961,
    "drew</w>": 3962,
    "arch": 3963,
    "ap</w>": 3964,
    "fortune</w>": 3965,
    "fanc": 3966,
    "\u201cHe</w>": 3967,
    "per,</w>": 3968,
    "moved</w>": 3969,
    "house,</w>": 3970,
    "vement</w>": 3971,
    "inclin": 3972,
    "existence</w>": 3973,
    "illu": 3974,
    "chair</w>": 3975,
    "dispos": 3976,
    "\u2014and</w>": 3977,
    "pho": 3978,
    "ateur</w>": 3979,
    "Monsieur,</w>": 3980,
    "faisant</w>": 3981,
    "regarda</w>": 3982,
    "lumi\u00e8re</w>": 3983,
    "\u00e9tant</w>": 3984,
    "p\u00e9n\u00e9tr": 3985,
    "b\u00e2timent</w>": 3986,
    "elle-": 3987,
    "flott": 3988,
    "n'a</w>": 3989,
    "s'en</w>": 3990,
    "Cyrus,</w>": 3991,
    "lov": 3992,
    "who,</w>": 3993,
    "orig": 3994,
    "scr": 3995,
    "spl": 3996,
    "power</w>": 3997,
    "everything</w>": 3998,
    "danger</w>": 3999,
    "danger": 4000,
    "order": 4001,
    "ran</w>": 4002,
    "confid": 4003,
    "tron": 4004,
    "He": 4005,
    "poli": 4006,
    "crew": 4007,
    "whalem": 4008,
    "cher,</w>": 4009,
    "Lorry,</w>": 4010,
    "elopp": 4011,
    "pourrait</w>": 4012,
    "d\u2019\u00eatre</w>": 4013,
    "enfin,</w>": 4014,
    "resse</w>": 4015,
    "h\u00e9sit": 4016,
    "heure,</w>": 4017,
    "ached</w>": 4018,
    "dic": 4019,
    "fif": 4020,
    "nearly</w>": 4021,
    "distingu": 4022,
    "action</w>": 4023,
    "comes</w>": 4024,
    "ship,</w>": 4025,
    "understand</w>": 4026,
    "ice</w>": 4027,
    "hours</w>": 4028,
    "trad": 4029,
    "Gre": 4030,
    "lum": 4031,
    "n\u2019en</w>": 4032,
    "travers": 4033,
    "Bonacieux,</w>": 4034,
    "affec": 4035,
    "emin": 4036,
    "eness</w>": 4037,
    "hist": 4038,
    "Fren": 4039,
    "priv": 4040,
    "act</w>": 4041,
    "try</w>": 4042,
    "addres": 4043,
    "attach": 4044,
    "gentleman</w>": 4045,
    "oppos": 4046,
    "eath</w>": 4047,
    "quanti": 4048,
    "Ter": 4049,
    "Eur": 4050,
    "fis": 4051,
    "non,</w>": 4052,
    "\u00e9mo": 4053,
    "pr\u00e9ci": 4054,
    "certaine</w>": 4055,
    "p\u00e8re</w>": 4056,
    "Cependant</w>": 4057,
    "Quand</w>": 4058,
    "chass": 4059,
    "pi\u00e8": 4060,
    "reste</w>": 4061,
    "demment</w>": 4062,
    "Granite-House,</w>": 4063,
    "twent": 4064,
    "account</w>": 4065,
    "wer": 4066,
    "ely,</w>": 4067,
    "except</w>": 4068,
    "appoin": 4069,
    "low</w>": 4070,
    "procu": 4071,
    "Ex": 4072,
    "carr": 4073,
    "res;</w>": 4074,
    "aven": 4075,
    "ige": 4076,
    "chant": 4077,
    "angle</w>": 4078,
    "fabri": 4079,
    "aire.</w>": 4080,
    "tant": 4081,
    "-T": 4082,
    "s\u00e9ri": 4083,
    "r\u00e9un": 4084,
    "si\u00e8": 4085,
    "seconde</w>": 4086,
    "donne</w>": 4087,
    "iti\u00e9</w>": 4088,
    "Alors,</w>": 4089,
    "merve": 4090,
    "\u00abVous</w>": 4091,
    "\u00e9es.</w>": 4092,
    "D'ailleurs,</w>": 4093,
    "rom": 4094,
    "red,</w>": 4095,
    "figu": 4096,
    "compar": 4097,
    "play": 4098,
    "Jo": 4099,
    "enough": 4100,
    "phil": 4101,
    "ines,</w>": 4102,
    "y,\u201d</w>": 4103,
    "yourself</w>": 4104,
    "lip": 4105,
    "feeling</w>": 4106,
    "she": 4107,
    "resol": 4108,
    "Bo": 4109,
    "service</w>": 4110,
    "bag": 4111,
    "propo": 4112,
    "prise</w>": 4113,
    "ales</w>": 4114,
    "ale,</w>": 4115,
    "raison</w>": 4116,
    "esp\u00e8ce</w>": 4117,
    "Ne</w>": 4118,
    "donnait</w>": 4119,
    "L\u00e0,</w>": 4120,
    "issaient</w>": 4121,
    "maintenant,</w>": 4122,
    "Dieu!</w>": 4123,
    "trente-": 4124,
    "Enfin,</w>": 4125,
    "issai": 4126,
    "Kett": 4127,
    "ular</w>": 4128,
    "compan": 4129,
    "cust": 4130,
    "prett": 4131,
    "will": 4132,
    "return</w>": 4133,
    "fatigu": 4134,
    "spoke</w>": 4135,
    "object</w>": 4136,
    "portion</w>": 4137,
    "tranquill": 4138,
    "double</w>": 4139,
    "Now</w>": 4140,
    "down,</w>": 4141,
    "instinc": 4142,
    "lock</w>": 4143,
    "Gu": 4144,
    "murder": 4145,
    "aigu": 4146,
    "interro": 4147,
    "ier,</w>": 4148,
    "\u00e9ro": 4149,
    "bas</w>": 4150,
    "prenait</w>": 4151,
    "vivement</w>": 4152,
    "murmura</w>": 4153,
    "armes</w>": 4154,
    "aussi,</w>": 4155,
    "racont": 4156,
    "Cet</w>": 4157,
    "longu": 4158,
    "vois</w>": 4159,
    "d\u00fb</w>": 4160,
    "Peu": 4161,
    "sol</w>": 4162,
    "n'avaient</w>": 4163,
    "reporter,</w>": 4164,
    "woul": 4165,
    "charge</w>": 4166,
    "tour": 4167,
    "Wickham": 4168,
    "ber</w>": 4169,
    "so.</w>": 4170,
    "neigh": 4171,
    "mir": 4172,
    "wret": 4173,
    "this": 4174,
    "prec": 4175,
    "death</w>": 4176,
    "forth</w>": 4177,
    "fron": 4178,
    "heavy</w>": 4179,
    "slowly</w>": 4180,
    "Se": 4181,
    "pes": 4182,
    "ille.</w>": 4183,
    "ai,</w>": 4184,
    "auquel</w>": 4185,
    "faites</w>": 4186,
    "paraissait</w>": 4187,
    "autres,</w>": 4188,
    "vais</w>": 4189,
    "extr\u00e9m": 4190,
    "Ben": 4191,
    "evid": 4192,
    "corn": 4193,
    "ancing</w>": 4194,
    "saf": 4195,
    "influence</w>": 4196,
    "y!</w>": 4197,
    "order</w>": 4198,
    "usual</w>": 4199,
    "true</w>": 4200,
    "act": 4201,
    "refer": 4202,
    "CHAP": 4203,
    "at\u2019s</w>": 4204,
    "Europ": 4205,
    "Queequeg</w>": 4206,
    "savez</w>": 4207,
    "alla</w>": 4208,
    "Voil\u00e0</w>": 4209,
    "\u00e9tions</w>": 4210,
    "ci,</w>": 4211,
    "ciel</w>": 4212,
    "eaux,</w>": 4213,
    "Barbicane</w>": 4214,
    "actu": 4215,
    "ised</w>": 4216,
    "net,</w>": 4217,
    "gh</w>": 4218,
    "strong": 4219,
    "ast,</w>": 4220,
    "pleasure</w>": 4221,
    "ure,</w>": 4222,
    "morning,</w>": 4223,
    "Not</w>": 4224,
    "entered</w>": 4225,
    "learn": 4226,
    "expect": 4227,
    "person</w>": 4228,
    "refu": 4229,
    "spar": 4230,
    "Jon": 4231,
    "incre": 4232,
    "civil": 4233,
    "door,</w>": 4234,
    "prodi": 4235,
    "tear": 4236,
    "!\u2019</w>": 4237,
    "White</w>": 4238,
    "heads</w>": 4239,
    "vessel": 4240,
    "rang": 4241,
    "Indi": 4242,
    "\u00c9t": 4243,
    "l\u2019h\u00f4t": 4244,
    "quait</w>": 4245,
    "longtemps</w>": 4246,
    "cependant,</w>": 4247,
    "voudr": 4248,
    "chau": 4249,
    "revenir</w>": 4250,
    "int\u00e9r": 4251,
    "non": 4252,
    "form</w>": 4253,
    "vir": 4254,
    "ghted</w>": 4255,
    "know,</w>": 4256,
    "answer</w>": 4257,
    "Long": 4258,
    "Of</w>": 4259,
    "tern": 4260,
    "quick": 4261,
    "wit": 4262,
    "mone": 4263,
    "clou": 4264,
    "me!</w>": 4265,
    "burn": 4266,
    "prol": 4267,
    "vieill": 4268,
    "yeux,</w>": 4269,
    "ettre</w>": 4270,
    "\u00e9tabl": 4271,
    "grandes</w>": 4272,
    "mots</w>": 4273,
    "parce</w>": 4274,
    "Tous</w>": 4275,
    "voici</w>": 4276,
    "n'e\u00fbt</w>": 4277,
    "show</w>": 4278,
    "attemp": 4279,
    "arti": 4280,
    "else</w>": 4281,
    "refus": 4282,
    "ar.</w>": 4283,
    "ishe": 4284,
    "persu": 4285,
    "life": 4286,
    "man\u2019s</w>": 4287,
    "pense</w>": 4288,
    "become</w>": 4289,
    "tribu": 4290,
    "fell</w>": 4291,
    "ild": 4292,
    "elled</w>": 4293,
    "lab": 4294,
    "voyag": 4295,
    "visage</w>": 4296,
    "souven": 4297,
    "Ahab,</w>": 4298,
    "igneur</w>": 4299,
    "J.": 4300,
    "reux,</w>": 4301,
    "-</w>": 4302,
    "moi.</w>": 4303,
    "avez-vous</w>": 4304,
    "prati": 4305,
    "Sire,</w>": 4306,
    "Michel</w>": 4307,
    "l'emb": 4308,
    "Gun": 4309,
    "Gun-C": 4310,
    "Gun-Clu": 4311,
    "objec": 4312,
    "assi": 4313,
    "not,</w>": 4314,
    "ectly</w>": 4315,
    "desp": 4316,
    "vious</w>": 4317,
    "mol": 4318,
    "enter": 4319,
    "fear</w>": 4320,
    "Lond": 4321,
    "don,</w>": 4322,
    "sir,</w>": 4323,
    "day.</w>": 4324,
    "aining</w>": 4325,
    "ets,</w>": 4326,
    "road": 4327,
    "\u2019ll</w>": 4328,
    "at.</w>": 4329,
    "Du": 4330,
    "pot": 4331,
    "isit</w>": 4332,
    "Flas": 4333,
    "Stry": 4334,
    "agne</w>": 4335,
    "m\u00e9t": 4336,
    "d\u00e9couver": 4337,
    "demander</w>": 4338,
    "t\u00eate,</w>": 4339,
    "ouvrir</w>": 4340,
    "chemin": 4341,
    "d\u00ee": 4342,
    "--Je</w>": 4343,
    "Conseil.</w>": 4344,
    "suppos": 4345,
    "light": 4346,
    "est.</w>": 4347,
    "ested</w>": 4348,
    "alis": 4349,
    "real</w>": 4350,
    "Gardin": 4351,
    "ock</w>": 4352,
    "respect": 4353,
    "a!</w>": 4354,
    "Is</w>": 4355,
    "clear</w>": 4356,
    "break": 4357,
    "fer</w>": 4358,
    "its,</w>": 4359,
    "and.</w>": 4360,
    "em</w>": 4361,
    "ures</w>": 4362,
    "as!</w>": 4363,
    "cast": 4364,
    "ah</w>": 4365,
    "darkn": 4366,
    "mach": 4367,
    "Doctor": 4368,
    "dis</w>": 4369,
    "paroles</w>": 4370,
    "Et,</w>": 4371,
    "suivre</w>": 4372,
    "br\u00fb": 4373,
    "Peut-": 4374,
    "Ayrton,</w>": 4375,
    "ensi": 4376,
    "conduc": 4377,
    "th;</w>": 4378,
    "pretty</w>": 4379,
    "dead": 4380,
    "half-": 4381,
    "trait</w>": 4382,
    "ace,</w>": 4383,
    "compani": 4384,
    "\u201cIf</w>": 4385,
    "time.</w>": 4386,
    "ation;</w>": 4387,
    "frequ": 4388,
    "etting</w>": 4389,
    "care": 4390,
    "tering</w>": 4391,
    "pav": 4392,
    "Be": 4393,
    "der,</w>": 4394,
    "ling": 4395,
    "um</w>": 4396,
    "ink": 4397,
    "oce": 4398,
    "ais.</w>": 4399,
    "prolong": 4400,
    "prison</w>": 4401,
    "De": 4402,
    "elle.</w>": 4403,
    "m\u00e9di": 4404,
    "vois": 4405,
    "haute</w>": 4406,
    "droit</w>": 4407,
    "tionn": 4408,
    "d\u00e9ser": 4409,
    "aine.</w>": 4410,
    "arbres</w>": 4411,
    "Felton,</w>": 4412,
    "Pang": 4413,
    "en;</w>": 4414,
    "others</w>": 4415,
    "life,</w>": 4416,
    "cy": 4417,
    "hil": 4418,
    "Darcy,</w>": 4419,
    "wea": 4420,
    "daughter</w>": 4421,
    "afr": 4422,
    "rece": 4423,
    "back,</w>": 4424,
    "led,</w>": 4425,
    "itude</w>": 4426,
    "nour": 4427,
    "ace": 4428,
    "cott": 4429,
    "hurri": 4430,
    "stone</w>": 4431,
    "bill": 4432,
    "st-": 4433,
    "pays</w>": 4434,
    "promen": 4435,
    "mousquetaires</w>": 4436,
    "d\u00e9f": 4437,
    "\u00e8res,</w>": 4438,
    "morce": 4439,
    "espr": 4440,
    "raison,</w>": 4441,
    "mi</w>": 4442,
    "diff\u00e9r": 4443,
    "compagnons,</w>": 4444,
    "aisse</w>": 4445,
    "Grimau": 4446,
    "keep": 4447,
    "thor": 4448,
    "sense</w>": 4449,
    "observed</w>": 4450,
    "remember</w>": 4451,
    "cold</w>": 4452,
    "Collins</w>": 4453,
    "osop": 4454,
    "ras": 4455,
    "From</w>": 4456,
    "far": 4457,
    "Ven": 4458,
    "earn": 4459,
    "wel": 4460,
    "hoo": 4461,
    "evening</w>": 4462,
    "ide,</w>": 4463,
    "ourag": 4464,
    "joy": 4465,
    "formed</w>": 4466,
    "placed</w>": 4467,
    "mission</w>": 4468,
    "alone</w>": 4469,
    "head.</w>": 4470,
    "t\u2019s</w>": 4471,
    "fisher": 4472,
    "millions</w>": 4473,
    "plein</w>": 4474,
    "jusqu\u2019\u00e0</w>": 4475,
    "voulut</w>": 4476,
    "dit\u00e9</w>": 4477,
    "remont": 4478,
    "entra\u00een": 4479,
    "perdu</w>": 4480,
    "cue": 4481,
    "\u00f4t,</w>": 4482,
    "mais": 4483,
    "montagn": 4484,
    "J.-T": 4485,
    "J.-T.</w>": 4486,
    "S</w>": 4487,
    "lies</w>": 4488,
    "clai": 4489,
    "popul": 4490,
    "perfectly</w>": 4491,
    "beyond</w>": 4492,
    "inquir": 4493,
    "ves,</w>": 4494,
    "favour": 4495,
    "together": 4496,
    "hour": 4497,
    "pau": 4498,
    "points</w>": 4499,
    "board</w>": 4500,
    "adver": 4501,
    "ville</w>": 4502,
    "Stubb</w>": 4503,
    "ire.</w>": 4504,
    "rons</w>": 4505,
    "eau.</w>": 4506,
    "reconna\u00eetre</w>": 4507,
    "irait</w>": 4508,
    "longue</w>": 4509,
    "dez</w>": 4510,
    "demande</w>": 4511,
    "voir,</w>": 4512,
    "loin</w>": 4513,
    "yez</w>": 4514,
    "mesur": 4515,
    "creus": 4516,
    "aines</w>": 4517,
    "Land,</w>": 4518,
    "Nor": 4519,
    "advant": 4520,
    "whol": 4521,
    "mother": 4522,
    "writ": 4523,
    "philosop": 4524,
    "there.</w>": 4525,
    "friend,</w>": 4526,
    "counten": 4527,
    "law": 4528,
    "tier</w>": 4529,
    "ili": 4530,
    "van": 4531,
    "fast</w>": 4532,
    "rag": 4533,
    "diver": 4534,
    "ances,</w>": 4535,
    "semb": 4536,
    "voic": 4537,
    "explic": 4538,
    "memb": 4539,
    "cut</w>": 4540,
    "fe</w>": 4541,
    "pisto": 4542,
    "pes</w>": 4543,
    "monde,</w>": 4544,
    "tard,</w>": 4545,
    "reconnaiss": 4546,
    "n\u2019ai</w>": 4547,
    "entendu</w>": 4548,
    "\u00abEh</w>": 4549,
    "comprend": 4550,
    "premiers</w>": 4551,
    "r\u00e9c": 4552,
    "entendit</w>": 4553,
    "canot</w>": 4554,
    "l'autre</w>": 4555,
    "Fari": 4556,
    "death": 4557,
    "eci": 4558,
    "ally,</w>": 4559,
    "beauti": 4560,
    "Liz": 4561,
    "fixed</w>": 4562,
    "talk</w>": 4563,
    "aordin": 4564,
    "over,</w>": 4565,
    "d!</w>": 4566,
    "caught</w>": 4567,
    "Car": 4568,
    "minutes,</w>": 4569,
    "forward</w>": 4570,
    "empl": 4571,
    "God</w>": 4572,
    "rose</w>": 4573,
    "gaz": 4574,
    "visible</w>": 4575,
    "\u2014a</w>": 4576,
    "immo": 4577,
    "quant</w>": 4578,
    "seigneur</w>": 4579,
    "nombre</w>": 4580,
    "\u00e8rent,</w>": 4581,
    "it\u00e9s</w>": 4582,
    "brill": 4583,
    "passait</w>": 4584,
    "reusement,</w>": 4585,
    "absolument</w>": 4586,
    "arriv\u00e9</w>": 4587,
    "extr\u00eame</w>": 4588,
    "ch\u00e2t": 4589,
    "Lune</w>": 4590,
    "wonder</w>": 4591,
    "disposition</w>": 4592,
    "\u201cD": 4593,
    "extraordin": 4594,
    "excellent</w>": 4595,
    "mem": 4596,
    "more,</w>": 4597,
    "grou": 4598,
    "\u201cYes,</w>": 4599,
    "Wat": 4600,
    "answered</w>": 4601,
    "escap": 4602,
    "stitu": 4603,
    "op,</w>": 4604,
    "corp": 4605,
    "away,</w>": 4606,
    "lier</w>": 4607,
    "el.</w>": 4608,
    "miss": 4609,
    "ung</w>": 4610,
    "dents</w>": 4611,
    "salu": 4612,
    "Sher": 4613,
    "dait</w>": 4614,
    "tant\u00f4t</w>": 4615,
    "compte</w>": 4616,
    "ramen": 4617,
    "femme,</w>": 4618,
    "roug": 4619,
    "parcour": 4620,
    "vous?</w>": 4621,
    "resta</w>": 4622,
    "firent</w>": 4623,
    "curious</w>": 4624,
    "alo": 4625,
    "allowed</w>": 4626,
    "care</w>": 4627,
    "Me": 4628,
    "ment.</w>": 4629,
    "gig": 4630,
    "neighbour": 4631,
    "various</w>": 4632,
    "pon</w>": 4633,
    "ending</w>": 4634,
    "well,</w>": 4635,
    "eag": 4636,
    "suppose</w>": 4637,
    "furn": 4638,
    "long,</w>": 4639,
    "bear</w>": 4640,
    "ship\u2019s</w>": 4641,
    "arrass": 4642,
    "Stre": 4643,
    "can\u2019t</w>": 4644,
    "that\u2019s</w>": 4645,
    "yer</w>": 4646,
    "Win": 4647,
    "Monseigneur,</w>": 4648,
    "esse,</w>": 4649,
    "boul": 4650,
    "a\u00e7": 4651,
    "m\u00e2": 4652,
    "ainsi,</w>": 4653,
    "preu": 4654,
    "int\u00e9rieur</w>": 4655,
    "\u00e9lectri": 4656,
    "langu": 4657,
    "mean</w>": 4658,
    "tried</w>": 4659,
    "themselves</w>": 4660,
    "ical</w>": 4661,
    "ies,</w>": 4662,
    "thing.</w>": 4663,
    "childr": 4664,
    "avi": 4665,
    "getting</w>": 4666,
    "running</w>": 4667,
    "sof": 4668,
    "ned</w>": 4669,
    "aspect</w>": 4670,
    "tion;</w>": 4671,
    "state</w>": 4672,
    "ements,</w>": 4673,
    "dread": 4674,
    "accus": 4675,
    "boy": 4676,
    "broken</w>": 4677,
    "light,</w>": 4678,
    "row": 4679,
    "lean": 4680,
    "tail": 4681,
    "ser,</w>": 4682,
    "Paris,</w>": 4683,
    "Que": 4684,
    "laqu": 4685,
    "g\u00e9</w>": 4686,
    "reste,</w>": 4687,
    "sourire</w>": 4688,
    "effet</w>": 4689,
    "lesquels</w>": 4690,
    "veut</w>": 4691,
    "leva</w>": 4692,
    "perdre</w>": 4693,
    "it\u00e9.</w>": 4694,
    "vaste</w>": 4695,
    "attendre</w>": 4696,
    "\u00abJe</w>": 4697,
    "Quelques</w>": 4698,
    "mont</w>": 4699,
    "littor": 4700,
    "d'abord</w>": 4701,
    "Pacifi": 4702,
    "l'ing\u00e9nieur.</w>": 4703,
    "Smith.</w>": 4704,
    "reason": 4705,
    "added</w>": 4706,
    "reti": 4707,
    "capable</w>": 4708,
    "satisfac": 4709,
    "ial</w>": 4710,
    "ounds</w>": 4711,
    "neither</w>": 4712,
    "entirely</w>": 4713,
    "ke,</w>": 4714,
    "tures</w>": 4715,
    "even": 4716,
    "out.</w>": 4717,
    "appearance</w>": 4718,
    "ables,</w>": 4719,
    "obst": 4720,
    "mant": 4721,
    "tis": 4722,
    "ence": 4723,
    "hang": 4724,
    ".]": 4725,
    "Frank": 4726,
    "vau": 4727,
    "iron</w>": 4728,
    "doc": 4729,
    "Sherlock</w>": 4730,
    "Mal": 4731,
    "projectile</w>": 4732,
    "l'homme</w>": 4733,
    "masse</w>": 4734,
    "p\u00e8re,</w>": 4735,
    "deven": 4736,
    "l\u2019avait</w>": 4737,
    "Comment</w>": 4738,
    "\u00e9videmment</w>": 4739,
    "lign": 4740,
    "aurais</w>": 4741,
    "ons-nous</w>": 4742,
    "rayons</w>": 4743,
    "poissons</w>": 4744,
    "fain": 4745,
    "pe,</w>": 4746,
    "English</w>": 4747,
    "exactly</w>": 4748,
    "vast</w>": 4749,
    "none</w>": 4750,
    "creature</w>": 4751,
    "before,</w>": 4752,
    "public</w>": 4753,
    "cely</w>": 4754,
    "whatever</w>": 4755,
    "separ": 4756,
    "ghts</w>": 4757,
    "around</w>": 4758,
    "patr": 4759,
    "I\u2019m</w>": 4760,
    "lamp": 4761,
    "pois": 4762,
    "mut": 4763,
    "Paris</w>": 4764,
    "facile</w>": 4765,
    "kil": 4766,
    "Sy": 4767,
    "coqu": 4768,
    "\u00e9v\u00e9n": 4769,
    "prenant</w>": 4770,
    "a-t-il,</w>": 4771,
    "troisi": 4772,
    "parol": 4773,
    "\u00e8tre</w>": 4774,
    "voyez</w>": 4775,
    "emment</w>": 4776,
    "Planchet</w>": 4777,
    "pieds,</w>": 4778,
    "Panglos": 4779,
    "d'hu": 4780,
    "Lincoln": 4781,
    "particular</w>": 4782,
    "dec": 4783,
    "times,</w>": 4784,
    "mere</w>": 4785,
    "Lizz": 4786,
    "duced</w>": 4787,
    "calcul": 4788,
    "\u2019s,</w>": 4789,
    "strum": 4790,
    "brea": 4791,
    "requ": 4792,
    "thoughts</w>": 4793,
    "cross": 4794,
    "troubl": 4795,
    "moment": 4796,
    "ax": 4797,
    "tell": 4798,
    "Yet</w>": 4799,
    "ouch": 4800,
    "er-": 4801,
    "ye,</w>": 4802,
    "kne": 4803,
    "ck.</w>": 4804,
    "boats</w>": 4805,
    "...": 4806,
    "XV": 4807,
    "moi": 4808,
    "ques.</w>": 4809,
    "Aussi</w>": 4810,
    "parfaitement</w>": 4811,
    "gros": 4812,
    "eait</w>": 4813,
    "appelle</w>": 4814,
    "chambre,</w>": 4815,
    "longues</w>": 4816,
    "sentait</w>": 4817,
    "m\u00eal": 4818,
    "ie.</w>": 4819,
    "es-vous</w>": 4820,
    "amen": 4821,
    "br\u00fbl": 4822,
    "offr": 4823,
    "poussa</w>": 4824,
    "fille</w>": 4825,
    "Deux</w>": 4826,
    "puissance</w>": 4827,
    "travaux</w>": 4828,
    "edly</w>": 4829,
    "peculiar</w>": 4830,
    "further</w>": 4831,
    "Bennet,</w>": 4832,
    "sudden</w>": 4833,
    "ress</w>": 4834,
    "blue</w>": 4835,
    "Charlo": 4836,
    "view": 4837,
    "right": 4838,
    "occur": 4839,
    "ture,</w>": 4840,
    "Ther": 4841,
    "hat": 4842,
    "me?</w>": 4843,
    "custom": 4844,
    "acle</w>": 4845,
    "boat,</w>": 4846,
    "France</w>": 4847,
    ",\u2014": 4848,
    "Quo": 4849,
    "g\u00e9": 4850,
    "trente</w>": 4851,
    "recommand": 4852,
    "fonc": 4853,
    "fl\u00e9ch": 4854,
    "Est-": 4855,
    "pouvoir</w>": 4856,
    "itr": 4857,
    "dre,</w>": 4858,
    "Majest\u00e9</w>": 4859,
    "dessous</w>": 4860,
    "quitter</w>": 4861,
    "pointe</w>": 4862,
    "temp\u00e9r": 4863,
    "construc": 4864,
    "put": 4865,
    "ch.</w>": 4866,
    "single</w>": 4867,
    "judg": 4868,
    "ous.</w>": 4869,
    "herself,</w>": 4870,
    "al;</w>": 4871,
    "ener": 4872,
    "experi": 4873,
    "aston": 4874,
    "quiet": 4875,
    "grati": 4876,
    "\u201cThere</w>": 4877,
    "rever": 4878,
    "ses,</w>": 4879,
    "hair</w>": 4880,
    "run</w>": 4881,
    "Charles</w>": 4882,
    "row</w>": 4883,
    "dropped</w>": 4884,
    "ant;</w>": 4885,
    "zz": 4886,
    "es?</w>": 4887,
    "k-": 4888,
    "allons</w>": 4889,
    "It\u2019s</w>": 4890,
    "ah!</w>": 4891,
    "illes,</w>": 4892,
    "Ah</w>": 4893,
    "Tell": 4894,
    "eur;</w>": 4895,
    "messieurs,</w>": 4896,
    "tique</w>": 4897,
    "tira</w>": 4898,
    "entour": 4899,
    "rapproch": 4900,
    "telle</w>": 4901,
    "r\u00e9pliqua</w>": 4902,
    "Vers</w>": 4903,
    "\u00e9coul": 4904,
    "entendre</w>": 4905,
    "singuli": 4906,
    "veau</w>": 4907,
    "naufrag": 4908,
    "consequ": 4909,
    "tical</w>": 4910,
    "especi": 4911,
    "minis": 4912,
    "affection</w>": 4913,
    "brother": 4914,
    "complet": 4915,
    "room.</w>": 4916,
    "firm": 4917,
    "\u201cbut</w>": 4918,
    "compli": 4919,
    "however</w>": 4920,
    "wei": 4921,
    "engaged</w>": 4922,
    "fair</w>": 4923,
    "beneath</w>": 4924,
    "plant": 4925,
    "pock": 4926,
    "_A": 4927,
    "?\u2014": 4928,
    "he\u2019s</w>": 4929,
    "steam": 4930,
    "marin": 4931,
    "bres</w>": 4932,
    "Esp": 4933,
    "u.</w>": 4934,
    "quoique</w>": 4935,
    "nous,</w>": 4936,
    "appuy": 4937,
    "coup,</w>": 4938,
    "gros</w>": 4939,
    "entra</w>": 4940,
    "blanc": 4941,
    "agr\u00e9": 4942,
    "\u00e9prouv": 4943,
    "aime</w>": 4944,
    "pr\u00e9cis": 4945,
    "boute": 4946,
    "doig": 4947,
    "ira</w>": 4948,
    "para\u00eet</w>": 4949,
    "r\u00e9ser": 4950,
    "n'ai</w>": 4951,
    "nord": 4952,
    "vel": 4953,
    "agree": 4954,
    "consol": 4955,
    "pass</w>": 4956,
    "Some</w>": 4957,
    "Such</w>": 4958,
    "Well,</w>": 4959,
    "ess;</w>": 4960,
    "instrum": 4961,
    "tions.</w>": 4962,
    "whisper": 4963,
    "ask": 4964,
    "communication</w>": 4965,
    "wand": 4966,
    "top": 4967,
    "meas": 4968,
    "mine</w>": 4969,
    "touch": 4970,
    "gli": 4971,
    "doubl": 4972,
    "cabin": 4973,
    "ato": 4974,
    "lement</w>": 4975,
    "vin</w>": 4976,
    "remarqu": 4977,
    "gar\u00e7on</w>": 4978,
    "achev": 4979,
    "contraire,</w>": 4980,
    "revint</w>": 4981,
    "matin</w>": 4982,
    "Buckingham</w>": 4983,
    "sez</w>": 4984,
    "poitr": 4985,
    "approcha</w>": 4986,
    "Lors": 4987,
    "Qui</w>": 4988,
    "inf\u00e9ri": 4989,
    "d\u00e9jeun": 4990,
    "pr\u00e9cau": 4991,
    "Ainsi</w>": 4992,
    "Cac": 4993,
    "Bonadvent": 4994,
    "convicts</w>": 4995,
    "shap": 4996,
    "midd": 4997,
    "fant": 4998,
    "claim": 4999,
    "On": 5000,
    "bad</w>": 5001,
    "cli": 5002,
    "5</w>": 5003,
    "y.\u201d</w>": 5004,
    "acquaint": 5005,
    "afterwards</w>": 5006,
    "ounc": 5007,
    "O</w>": 5008,
    "bed,</w>": 5009,
    "leaving</w>": 5010,
    "ased</w>": 5011,
    "sonn": 5012,
    "last,</w>": 5013,
    "miserable</w>": 5014,
    "proc": 5015,
    "ty,</w>": 5016,
    "fire</w>": 5017,
    "ade,</w>": 5018,
    "bonn": 5019,
    "orn": 5020,
    "child</w>": 5021,
    "ashed</w>": 5022,
    "fan": 5023,
    "prisoner</w>": 5024,
    "explo": 5025,
    "isol": 5026,
    "ur.</w>": 5027,
    "Angle": 5028,
    "dix-": 5029,
    "Aussi,</w>": 5030,
    "Pas</w>": 5031,
    "auraient</w>": 5032,
    "serr": 5033,
    "d\u00e9cl": 5034,
    "\u00e9tait,</w>": 5035,
    "malheureux</w>": 5036,
    "Planchet,</w>": 5037,
    "contre": 5038,
    "--Et</w>": 5039,
    "m'a</w>": 5040,
    "J'ai</w>": 5041,
    "professeur,</w>": 5042,
    "Wickham</w>": 5043,
    "aver": 5044,
    "interest": 5045,
    "Catherine</w>": 5046,
    "speak": 5047,
    "ue.</w>": 5048,
    "ley</w>": 5049,
    "Willi": 5050,
    "ave,</w>": 5051,
    "erv": 5052,
    "pun": 5053,
    "ake,</w>": 5054,
    "ated,</w>": 5055,
    "ink</w>": 5056,
    "begin": 5057,
    "afraid</w>": 5058,
    "longer</w>": 5059,
    "preci": 5060,
    "exceed": 5061,
    "stret": 5062,
    "\u201cG": 5063,
    "barb": 5064,
    "formid": 5065,
    "cell": 5066,
    "I.</w>": 5067,
    "drag": 5068,
    "meric": 5069,
    "Plu": 5070,
    "coll": 5071,
    "conserv": 5072,
    "Defarge,</w>": 5073,
    "inte</w>": 5074,
    "manoeuv": 5075,
    "Grande-": 5076,
    "ligne</w>": 5077,
    "ques-": 5078,
    "f\u00fb": 5079,
    "garde</w>": 5080,
    "mesure</w>": 5081,
    "digne</w>": 5082,
    "restait</w>": 5083,
    "journ\u00e9e</w>": 5084,
    "ajouta</w>": 5085,
    "souri": 5086,
    "cri</w>": 5087,
    "Seu": 5088,
    "peu,</w>": 5089,
    "soixante-": 5090,
    "flots</w>": 5091,
    "colons,</w>": 5092,
    "esses</w>": 5093,
    "Lydia</w>": 5094,
    "fal": 5095,
    "are,</w>": 5096,
    "prac": 5097,
    "country</w>": 5098,
    "sion.</w>": 5099,
    "easy</w>": 5100,
    "heal": 5101,
    "nific": 5102,
    "Colon": 5103,
    "tem": 5104,
    "assist": 5105,
    "Lon": 5106,
    "save</w>": 5107,
    "sitting</w>": 5108,
    "village</w>": 5109,
    "interrup": 5110,
    "argu": 5111,
    "plan</w>": 5112,
    "allow</w>": 5113,
    "point,</w>": 5114,
    "ester": 5115,
    "past</w>": 5116,
    "domesti": 5117,
    "tob": 5118,
    "fut": 5119,
    "seas": 5120,
    "soul</w>": 5121,
    "ward,</w>": 5122,
    "cloth": 5123,
    "water,</w>": 5124,
    "ante.</w>": 5125,
    "shoulder": 5126,
    "I\u2019ve</w>": 5127,
    "sperm</w>": 5128,
    "Tellson": 5129,
    "dirige": 5130,
    "\u00e8te</w>": 5131,
    "teur</w>": 5132,
    "asse</w>": 5133,
    "qu\u2019une</w>": 5134,
    "h\u00e9r": 5135,
    "homme.</w>": 5136,
    "nomm": 5137,
    "trouve</w>": 5138,
    "gardes</w>": 5139,
    "\u00abEt</w>": 5140,
    "m\u00eame.</w>": 5141,
    "nage": 5142,
    "demi</w>": 5143,
    "r\u00e9us": 5144,
    "Villefort,</w>": 5145,
    "likely</w>": 5146,
    "iel": 5147,
    "perhaps,</w>": 5148,
    "self-": 5149,
    "origin": 5150,
    "sn": 5151,
    "knowledge</w>": 5152,
    "chief</w>": 5153,
    "therefore</w>": 5154,
    "following</w>": 5155,
    "streng": 5156,
    "\u201cThat</w>": 5157,
    "ness.</w>": 5158,
    "thro": 5159,
    "T</w>": 5160,
    "died</w>": 5161,
    "although</w>": 5162,
    "provis": 5163,
    "pai": 5164,
    "wo": 5165,
    "ils,</w>": 5166,
    "goes</w>": 5167,
    "constru": 5168,
    "fru": 5169,
    "mul": 5170,
    "\u2018I</w>": 5171,
    "ades</w>": 5172,
    "bes</w>": 5173,
    "Stubb,</w>": 5174,
    "ot,</w>": 5175,
    "onze</w>": 5176,
    "Pros": 5177,
    "pre</w>": 5178,
    "r\u00e9e</w>": 5179,
    "craign": 5180,
    "attendait</w>": 5181,
    "mis\u00e9r": 5182,
    "bien!</w>": 5183,
    "vie,</w>": 5184,
    "lui-m\u00eame,</w>": 5185,
    "retomb": 5186,
    "meil": 5187,
    "peuvent</w>": 5188,
    "hommes,</w>": 5189,
    "\u00e9quip": 5190,
    "plate-": 5191,
    "ge\u00f4": 5192,
    "Barbicane,</w>": 5193,
    "itten</w>": 5194,
    "late</w>": 5195,
    "giving</w>": 5196,
    "provo": 5197,
    "titu": 5198,
    "oured</w>": 5199,
    "continued</w>": 5200,
    "endeav": 5201,
    "happiness</w>": 5202,
    "friends</w>": 5203,
    "best": 5204,
    "repeated</w>": 5205,
    "\u201cNo,</w>": 5206,
    "arrang": 5207,
    "father\u2019s</w>": 5208,
    "gate</w>": 5209,
    "religi": 5210,
    ".\u2014": 5211,
    "tiers</w>": 5212,
    "Marse": 5213,
    "Lev": 5214,
    "\u00e9l\u00e9": 5215,
    "fran\u00e7": 5216,
    "livres</w>": 5217,
    "vrai</w>": 5218,
    "vieux</w>": 5219,
    "c\u00f4t\u00e9,</w>": 5220,
    "regardant</w>": 5221,
    "euses</w>": 5222,
    "p\u00e9r": 5223,
    "ent-ils</w>": 5224,
    "rapidement</w>": 5225,
    "vaisse": 5226,
    "Winter</w>": 5227,
    "Chemin": 5228,
    "destro": 5229,
    "conten": 5230,
    "story</w>": 5231,
    "greater</w>": 5232,
    "st.</w>": 5233,
    "scene</w>": 5234,
    "New</w>": 5235,
    "moder": 5236,
    "town</w>": 5237,
    "tenant,</w>": 5238,
    "scarcely</w>": 5239,
    "fellow": 5240,
    "aying</w>": 5241,
    "voice,</w>": 5242,
    "saying</w>": 5243,
    "yet,</w>": 5244,
    "pain</w>": 5245,
    "calm": 5246,
    "shook</w>": 5247,
    "foun": 5248,
    "profit": 5249,
    "drawn</w>": 5250,
    "fun": 5251,
    "Br": 5252,
    "b,</w>": 5253,
    "rive</w>": 5254,
    "Americ": 5255,
    "repo": 5256,
    "deck,</w>": 5257,
    "fellow</w>": 5258,
    "sombre</w>": 5259,
    "France,</w>": 5260,
    "tlanti": 5261,
    "erci": 5262,
    "whaling</w>": 5263,
    "respir": 5264,
    "d\u00e9ci": 5265,
    "nie</w>": 5266,
    "sait,</w>": 5267,
    "m\u00eames</w>": 5268,
    "l\u2019autre</w>": 5269,
    "faisaient</w>": 5270,
    "utile</w>": 5271,
    "moiti\u00e9</w>": 5272,
    "\u00c9minence</w>": 5273,
    "d\u00e9g": 5274,
    "abord,</w>": 5275,
    "marche</w>": 5276,
    "arriva</w>": 5277,
    "fallut</w>": 5278,
    "commandant</w>": 5279,
    "onna": 5280,
    "Morrel,</w>": 5281,
    "Ned,</w>": 5282,
    "devo": 5283,
    "delic": 5284,
    "gall": 5285,
    "ist</w>": 5286,
    "aces</w>": 5287,
    "art</w>": 5288,
    "merely</w>": 5289,
    "regards</w>": 5290,
    "Jane,</w>": 5291,
    "Here</w>": 5292,
    "probable</w>": 5293,
    "fear": 5294,
    "less": 5295,
    "occasion": 5296,
    "ted,</w>": 5297,
    "ary,</w>": 5298,
    "kni": 5299,
    "inced</w>": 5300,
    "answer": 5301,
    "together,</w>": 5302,
    "important</w>": 5303,
    "fice</w>": 5304,
    "grat": 5305,
    "ence;</w>": 5306,
    "bent</w>": 5307,
    "chim": 5308,
    "stopped</w>": 5309,
    "ayed</w>": 5310,
    "steps</w>": 5311,
    "ou,</w>": 5312,
    "rich": 5313,
    "sympath": 5314,
    "se-": 5315,
    "ain.</w>": 5316,
    "rempl": 5317,
    "lieues</w>": 5318,
    "crut</w>": 5319,
    "reconnut</w>": 5320,
    "allong": 5321,
    "Ses</w>": 5322,
    "vigou": 5323,
    "couch": 5324,
    "vrai,</w>": 5325,
    "devin": 5326,
    "tirer</w>": 5327,
    "espoir</w>": 5328,
    "arrach": 5329,
    "abandonn": 5330,
    "travaill": 5331,
    "nuit,</w>": 5332,
    "roul": 5333,
    "retour</w>": 5334,
    "extr\u00e9mit\u00e9</w>": 5335,
    "\u00e9norme</w>": 5336,
    "s'av": 5337,
    "Aronna": 5338,
    "Canadien</w>": 5339,
    "th\u00e9": 5340,
    "ami": 5341,
    "pus": 5342,
    "husband</w>": 5343,
    "wish": 5344,
    "year</w>": 5345,
    "mess": 5346,
    "Colonel</w>": 5347,
    "introdu": 5348,
    "own.</w>": 5349,
    "be.</w>": 5350,
    "t:</w>": 5351,
    "greatest</w>": 5352,
    "es:</w>": 5353,
    "famili": 5354,
    "o\u2019": 5355,
    "ement;</w>": 5356,
    "need": 5357,
    "write</w>": 5358,
    "proceed": 5359,
    "cus": 5360,
    "\u201cA</w>": 5361,
    "ose</w>": 5362,
    "affir": 5363,
    "titude</w>": 5364,
    "sentiment</w>": 5365,
    "straight</w>": 5366,
    "cry</w>": 5367,
    "commo": 5368,
    "Sou": 5369,
    "captain": 5370,
    "Winter": 5371,
    "Just": 5372,
    "famille</w>": 5373,
    "th\u00e8": 5374,
    "jusqu\u2019": 5375,
    "celui-ci</w>": 5376,
    "regardait</w>": 5377,
    "chevaux</w>": 5378,
    "ouvrait</w>": 5379,
    "r\u00e9fl\u00e9ch": 5380,
    "malheur</w>": 5381,
    "mort,</w>": 5382,
    "laissait</w>": 5383,
    "faire,</w>": 5384,
    "serons</w>": 5385,
    "int\u00e9r\u00eat</w>": 5386,
    "Lun": 5387,
    "s'\u00e9l": 5388,
    "d'autres</w>": 5389,
    "marin.</w>": 5390,
    "Canadien,</w>": 5391,
    "L'ing\u00e9ni": 5392,
    "interest</w>": 5393,
    "cal</w>": 5394,
    "respect</w>": 5395,
    "def": 5396,
    "ladies</w>": 5397,
    "subject</w>": 5398,
    "pers": 5399,
    "assure</w>": 5400,
    "glad</w>": 5401,
    "bring</w>": 5402,
    "Your</w>": 5403,
    "alt": 5404,
    "ank": 5405,
    "resolved</w>": 5406,
    "threw</w>": 5407,
    "essed</w>": 5408,
    "cks</w>": 5409,
    "domin": 5410,
    "arms</w>": 5411,
    "cle</w>": 5412,
    "elle": 5413,
    "Alice,</w>": 5414,
    "won\u2019t</w>": 5415,
    "sort": 5416,
    "volcan": 5417,
    "jamb": 5418,
    "Marqu": 5419,
    "marqu": 5420,
    "partir</w>": 5421,
    "histoire</w>": 5422,
    "pareille</w>": 5423,
    "allez</w>": 5424,
    "quarante</w>": 5425,
    "este</w>": 5426,
    "pr\u00eat": 5427,
    "\u00e9?</w>": 5428,
    "gar\u00e7on,</w>": 5429,
    "d\u00e9vou": 5430,
    "parmi</w>": 5431,
    "celles</w>": 5432,
    "favor": 5433,
    "euse,</w>": 5434,
    "\u00e2me</w>": 5435,
    "ez-vous,</w>": 5436,
    "sentit</w>": 5437,
    "ennent</w>": 5438,
    "ez-moi</w>": 5439,
    "Pour": 5440,
    "pr\u00e9sident</w>": 5441,
    "roch": 5442,
    "Caderousse,</w>": 5443,
    "d'en</w>": 5444,
    "perm": 5445,
    "deal</w>": 5446,
    "These</w>": 5447,
    "ful,</w>": 5448,
    "--and</w>": 5449,
    "od": 5450,
    "expected</w>": 5451,
    "stup": 5452,
    "see,</w>": 5453,
    "omin": 5454,
    "valu": 5455,
    "easily</w>": 5456,
    "coo": 5457,
    "instantly</w>": 5458,
    "showed</w>": 5459,
    "Pr": 5460,
    "reco": 5461,
    "ins": 5462,
    "surprise</w>": 5463,
    "ome": 5464,
    "do,</w>": 5465,
    "an\u2019s</w>": 5466,
    "thrown</w>": 5467,
    "jug": 5468,
    "face.</w>": 5469,
    "lying</w>": 5470,
    "seam": 5471,
    "Tr": 5472,
    "whale\u2019s</w>": 5473,
    "Bild": 5474,
    "Moby</w>": 5475,
    "joie</w>": 5476,
    "commen\u00e7a</w>": 5477,
    "aper\u00e7ut</w>": 5478,
    "argent</w>": 5479,
    "Est-ce</w>": 5480,
    "heureux</w>": 5481,
    "tuer</w>": 5482,
    "Dieu,</w>": 5483,
    "servir</w>": 5484,
    "r\u00e9sist": 5485,
    "avant,</w>": 5486,
    "nourr": 5487,
    "matelo": 5488,
    "s'est</w>": 5489,
    "--Eh</w>": 5490,
    "exemp": 5491,
    "work": 5492,
    "fashi": 5493,
    "side": 5494,
    "pleasant</w>": 5495,
    "suffici": 5496,
    "closed</w>": 5497,
    "passing</w>": 5498,
    "way.</w>": 5499,
    "immediately</w>": 5500,
    "listen": 5501,
    "cheer": 5502,
    "marriage</w>": 5503,
    "wanted</w>": 5504,
    "carriage</w>": 5505,
    "miser": 5506,
    "ece</w>": 5507,
    "case,</w>": 5508,
    "in;</w>": 5509,
    "*</w>": 5510,
    "solem": 5511,
    "ides,</w>": 5512,
    "r.</w>": 5513,
    "months</w>": 5514,
    "King</w>": 5515,
    "ships</w>": 5516,
    "sad": 5517,
    "filled</w>": 5518,
    "earth</w>": 5519,
    "sail</w>": 5520,
    "pression</w>": 5521,
    "tard": 5522,
    "corri": 5523,
    "Pequod</w>": 5524,
    "....</w>": 5525,
    "Queequeg,</w>": 5526,
    "jeter</w>": 5527,
    "erons</w>": 5528,
    "compl\u00e8t": 5529,
    "entrer</w>": 5530,
    "guerre</w>": 5531,
    "\u00e9e;</w>": 5532,
    "mauvais</w>": 5533,
    "m\u00e9ridi": 5534,
    "d\u2019Artagnan;</w>": 5535,
    "troisi\u00e8me</w>": 5536,
    "p\u00fbt</w>": 5537,
    "ma\u00eetre,</w>": 5538,
    "Athos.</w>": 5539,
    "panne": 5540,
    "connu</w>": 5541,
    "chasse": 5542,
    "Buckingham": 5543,
    "lendemain</w>": 5544,
    "suivi</w>": 5545,
    "soin</w>": 5546,
    "Am\u00e9ri": 5547,
    "s'\u00e9cri": 5548,
    "Harbert.</w>": 5549,
    "considerable</w>": 5550,
    "written</w>": 5551,
    "might": 5552,
    "especially</w>": 5553,
    "enth": 5554,
    "bright</w>": 5555,
    "says</w>": 5556,
    "vous.</w>": 5557,
    "joy</w>": 5558,
    "inste": 5559,
    "Cer": 5560,
    "silence,</w>": 5561,
    "question,</w>": 5562,
    "myself,</w>": 5563,
    "tom": 5564,
    "o\u2019clo": 5565,
    "ghtened</w>": 5566,
    "justice</w>": 5567,
    "physi": 5568,
    "done,</w>": 5569,
    "off,</w>": 5570,
    "ologi": 5571,
    "possible": 5572,
    "presented</w>": 5573,
    "deur</w>": 5574,
    "train</w>": 5575,
    "manif": 5576,
    "Nor</w>": 5577,
    "courage</w>": 5578,
    "door": 5579,
    "indis": 5580,
    "earth": 5581,
    "trace</w>": 5582,
    "ids</w>": 5583,
    "Sh": 5584,
    "corner</w>": 5585,
    "ot": 5586,
    "C\u2019": 5587,
    "amour</w>": 5588,
    "press": 5589,
    "lib": 5590,
    "l'ab": 5591,
    "environ</w>": 5592,
    "permett": 5593,
    "fussent</w>": 5594,
    "fier</w>": 5595,
    "Ma</w>": 5596,
    "Par</w>": 5597,
    "d\u00e8": 5598,
    "venaient</w>": 5599,
    "devint</w>": 5600,
    "degr\u00e9s</w>": 5601,
    "est-il</w>": 5602,
    "quatre-": 5603,
    "pr\u00eat</w>": 5604,
    "nouvelles</w>": 5605,
    "voulez</w>": 5606,
    "avions</w>": 5607,
    "canon</w>": 5608,
    "p\u00each": 5609,
    "oiseaux</w>": 5610,
    "embre,</w>": 5611,
    "\u00e9tro": 5612,
    "bord,</w>": 5613,
    "profondeur</w>": 5614,
    "world,</w>": 5615,
    "fresh</w>": 5616,
    "opport": 5617,
    "start": 5618,
    "nov": 5619,
    "lower</w>": 5620,
    "Joh": 5621,
    "course,</w>": 5622,
    "perio": 5623,
    "women</w>": 5624,
    "makes</w>": 5625,
    "due</w>": 5626,
    "ate.</w>": 5627,
    "ance;</w>": 5628,
    "he.</w>": 5629,
    "\u201cHow</w>": 5630,
    "ned,</w>": 5631,
    "ants.</w>": 5632,
    "accid": 5633,
    "arm,</w>": 5634,
    "die</w>": 5635,
    "aud": 5636,
    "pressed</w>": 5637,
    "fish</w>": 5638,
    "question": 5639,
    "lan": 5640,
    "sea-": 5641,
    "tee": 5642,
    "(_": 5643,
    "squ": 5644,
    "navig": 5645,
    "deck</w>": 5646,
    "blood</w>": 5647,
    "merci": 5648,
    "mast-": 5649,
    "simul": 5650,
    "Syd": 5651,
    "r\u00e9gi": 5652,
    "am\u00e9ri": 5653,
    "am\u00e9ric": 5654,
    "Roch": 5655,
    "fils</w>": 5656,
    "queu": 5657,
    "autre": 5658,
    "ailles</w>": 5659,
    "porta</w>": 5660,
    "lent": 5661,
    "j\u2019en</w>": 5662,
    "somme": 5663,
    "op\u00e9ration</w>": 5664,
    "serai</w>": 5665,
    "Quel</w>": 5666,
    "\u00abIl</w>": 5667,
    "empar": 5668,
    "t\u00e9,</w>": 5669,
    "r\u00e9p\u00e9t": 5670,
    "vue,</w>": 5671,
    "Anglais</w>": 5672,
    "-l\u00e0,</w>": 5673,
    "travail</w>": 5674,
    "s'\u00e9lev": 5675,
    "l'int\u00e9rieur</w>": 5676,
    "IT": 5677,
    "Jan": 5678,
    "probably</w>": 5679,
    "visit</w>": 5680,
    "dare</w>": 5681,
    "appear</w>": 5682,
    "infin": 5683,
    "early</w>": 5684,
    "ol,</w>": 5685,
    "unless</w>": 5686,
    "determined</w>": 5687,
    "knowledg": 5688,
    "ters,</w>": 5689,
    "meet</w>": 5690,
    "on\u2019t</w>": 5691,
    "honour</w>": 5692,
    "sit</w>": 5693,
    "brother</w>": 5694,
    "started</w>": 5695,
    "forts</w>": 5696,
    "window</w>": 5697,
    "Tw": 5698,
    "hurried</w>": 5699,
    "ground</w>": 5700,
    "prin": 5701,
    "pill": 5702,
    "wind</w>": 5703,
    "embar": 5704,
    "ac</w>": 5705,
    "bun": 5706,
    "outer</w>": 5707,
    "parti</w>": 5708,
    "\u00e9trange</w>": 5709,
    "\u00e2ch": 5710,
    "Puis</w>": 5711,
    "ob\u00e9": 5712,
    "petits</w>": 5713,
    "eant</w>": 5714,
    "isait</w>": 5715,
    "faut": 5716,
    "seraient</w>": 5717,
    "allaient</w>": 5718,
    "seulement,</w>": 5719,
    "froid</w>": 5720,
    "certains</w>": 5721,
    "d\u00e9bar": 5722,
    "baie</w>": 5723,
    "--Oh!</w>": 5724,
    "Caderousse</w>": 5725,
    "s'arr\u00eat": 5726,
    "Granite-House.</w>": 5727,
    "corral,</w>": 5728,
    "opportun": 5729,
    "when,</w>": 5730,
    "need</w>": 5731,
    "tak": 5732,
    "dom</w>": 5733,
    "talking</w>": 5734,
    "to,</w>": 5735,
    "other.</w>": 5736,
    "she,</w>": 5737,
    "thinking</w>": 5738,
    "Sir</w>": 5739,
    "twenty</w>": 5740,
    "s,\u201d</w>": 5741,
    "instead</w>": 5742,
    "walking</w>": 5743,
    "sister,</w>": 5744,
    "til": 5745,
    "walk</w>": 5746,
    "manner,</w>": 5747,
    "company</w>": 5748,
    "ading</w>": 5749,
    "waiting</w>": 5750,
    "Rich": 5751,
    "stead": 5752,
    "ale.</w>": 5753,
    "prodigi": 5754,
    "jaw": 5755,
    "simpl": 5756,
    "passi": 5757,
    "ails</w>": 5758,
    "modi": 5759,
    "coin</w>": 5760,
    "uck</w>": 5761,
    "Levi": 5762,
    "ta</w>": 5763,
    "crew</w>": 5764,
    "Pele": 5765,
    "latitude</w>": 5766,
    "adro": 5767,
    "quart</w>": 5768,
    "l\u00e9": 5769,
    "prend</w>": 5770,
    "Eh!</w>": 5771,
    "fen\u00eat": 5772,
    "n\u2019a</w>": 5773,
    "serez</w>": 5774,
    "laiss\u00e9</w>": 5775,
    "voil": 5776,
    "eurent</w>": 5777,
    "cru</w>": 5778,
    "\u00e9!</w>": 5779,
    "airement</w>": 5780,
    "commen\u00e7ait</w>": 5781,
    "laissant</w>": 5782,
    "exp\u00e9di": 5783,
    "au-dessous</w>": 5784,
    "\u00e9vident</w>": 5785,
    "--C'est</w>": 5786,
    "N'": 5787,
    "s'agissait</w>": 5788,
    "s'\u00e9chapp": 5789,
    "v\u00e9g": 5790,
    "appareil</w>": 5791,
    "_Nautilus_.</w>": 5792,
    "propri": 5793,
    "notic": 5794,
    "degree</w>": 5795,
    "Kitt": 5796,
    "suspici": 5797,
    "disposi": 5798,
    "belong": 5799,
    "lets</w>": 5800,
    "away": 5801,
    "Nether": 5802,
    "go,</w>": 5803,
    "tol": 5804,
    "ations.</w>": 5805,
    "did": 5806,
    "parties</w>": 5807,
    "intention</w>": 5808,
    "silent</w>": 5809,
    "comfort": 5810,
    "dent": 5811,
    "self;</w>": 5812,
    "wide</w>": 5813,
    "recollec": 5814,
    "piti": 5815,
    "sugg": 5816,
    "free</w>": 5817,
    "concerning</w>": 5818,
    "itary</w>": 5819,
    "servic": 5820,
    "lement,</w>": 5821,
    "bs</w>": 5822,
    "poign": 5823,
    "horrible</w>": 5824,
    "romp": 5825,
    "Starbuck</w>": 5826,
    "Du</w>": 5827,
    "arriver</w>": 5828,
    "fr\u00e9qu": 5829,
    "r\u00e9fle": 5830,
    "soup\u00e7": 5831,
    "parlait</w>": 5832,
    "fait": 5833,
    "fera</w>": 5834,
    "\u00abAh!</w>": 5835,
    "poser</w>": 5836,
    "\u00e9tat</w>": 5837,
    "aintenant,</w>": 5838,
    "pens\u00e9e</w>": 5839,
    "plaisir</w>": 5840,
    "faudr": 5841,
    "\u00e9pouv": 5842,
    "inqui\u00e9tu": 5843,
    "d\u00e9ch": 5844,
    "\u00e8ve</w>": 5845,
    "emois": 5846,
    "sp\u00e9c": 5847,
    "l'autre,</w>": 5848,
    "sud-": 5849,
    "field</w>": 5850,
    "incident</w>": 5851,
    "Hun": 5852,
    "ost": 5853,
    "changed</w>": 5854,
    "ailed</w>": 5855,
    "wished</w>": 5856,
    "deci": 5857,
    "beautiful</w>": 5858,
    "dicul": 5859,
    "raised</w>": 5860,
    "suit": 5861,
    "Ge": 5862,
    "them;</w>": 5863,
    "paus": 5864,
    "zen</w>": 5865,
    "driv": 5866,
    "correspon": 5867,
    "cast</w>": 5868,
    "mind,</w>": 5869,
    "able!</w>": 5870,
    "virtu": 5871,
    "looks</w>": 5872,
    "\u201cB": 5873,
    "Look</w>": 5874,
    "faces</w>": 5875,
    "rushed</w>": 5876,
    "dream": 5877,
    "swim": 5878,
    "\u2014_": 5879,
    "broad</w>": 5880,
    "xy": 5881,
    "quen": 5882,
    "00": 5883,
    "aide</w>": 5884,
    "Aye,</w>": 5885,
    "!...</w>": 5886,
    "p\u00e9ri": 5887,
    "terre.</w>": 5888,
    "compag": 5889,
    "s\u2019en</w>": 5890,
    "rester</w>": 5891,
    "\u00eet</w>": 5892,
    "alit\u00e9</w>": 5893,
    "adress": 5894,
    "prononc": 5895,
    "inutil": 5896,
    "tout.</w>": 5897,
    "illon</w>": 5898,
    "sens</w>": 5899,
    "tranquille,</w>": 5900,
    "cueill": 5901,
    "fa\u00e7": 5902,
    "ait-elle</w>": 5903,
    "tomber</w>": 5904,
    "int\u00e9": 5905,
    "d\u00e9cid": 5906,
    "suivit</w>": 5907,
    "i\u00e8re</w>": 5908,
    "exp\u00e9ri": 5909,
    "aujourd'hu": 5910,
    "v\u00e9g\u00e9t": 5911,
    "Aronnax,</w>": 5912,
    "Em": 5913,
    "observation</w>": 5914,
    "view</w>": 5915,
    "3</w>": 5916,
    "for,</w>": 5917,
    "desire</w>": 5918,
    "befo": 5919,
    "night.</w>": 5920,
    "erly</w>": 5921,
    "simil": 5922,
    "\u201cThis</w>": 5923,
    "ds.</w>": 5924,
    "compreh": 5925,
    "graci": 5926,
    "airs</w>": 5927,
    "wis": 5928,
    "sign</w>": 5929,
    "er!</w>": 5930,
    "minute</w>": 5931,
    "more.</w>": 5932,
    "dign": 5933,
    "trouble</w>": 5934,
    "questions</w>": 5935,
    "er?</w>": 5936,
    "tible</w>": 5937,
    "side.</w>": 5938,
    "band": 5939,
    "top</w>": 5940,
    "centre</w>": 5941,
    "pping</w>": 5942,
    "patri": 5943,
    "apped</w>": 5944,
    "cit": 5945,
    "Holmes.</w>": 5946,
    "elles,</w>": 5947,
    "centi": 5948,
    "lumin": 5949,
    "sud</w>": 5950,
    "poss\u00e9": 5951,
    "Rou": 5952,
    "pr\u00e9occup": 5953,
    "m\u00e9r": 5954,
    "eux;</w>": 5955,
    "connaissait</w>": 5956,
    "anou": 5957,
    "Allons,</w>": 5958,
    "rapide</w>": 5959,
    "issement</w>": 5960,
    "arriv\u00e9e</w>": 5961,
    "di,</w>": 5962,
    "pas?</w>": 5963,
    "cev": 5964,
    "ouff": 5965,
    "pourr": 5966,
    "blement</w>": 5967,
    "tranch": 5968,
    "papier</w>": 5969,
    "zaine</w>": 5970,
    "effray": 5971,
    "aurons</w>": 5972,
    "l'arm": 5973,
    "Fernand</w>": 5974,
    "lac</w>": 5975,
    "roches</w>": 5976,
    "reporter.</w>": 5977,
    "here": 5978,
    "forced</w>": 5979,
    "tting</w>": 5980,
    "cler": 5981,
    "rest,</w>": 5982,
    "alle": 5983,
    "ill-": 5984,
    "om,</w>": 5985,
    "spent</w>": 5986,
    "ver.</w>": 5987,
    "ency</w>": 5988,
    "ow.</w>": 5989,
    "away.</w>": 5990,
    "ve.</w>": 5991,
    "olu": 5992,
    "along": 5993,
    "miles</w>": 5994,
    "uncle</w>": 5995,
    "on!</w>": 5996,
    "infer": 5997,
    "saw": 5998,
    "ving</w>": 5999,
    "chur": 6000,
    "arer</w>": 6001,
    "Who</w>": 6002,
    "eless,</w>": 6003,
    "sharp</w>": 6004,
    "pad": 6005,
    "successi": 6006,
    "French</w>": 6007,
    "bol": 6008,
    "EN": 6009,
    "\u2014I</w>": 6010,
    "rolled</w>": 6011,
    "sourc": 6012,
    "log": 6013,
    "tap": 6014,
    "un,</w>": 6015,
    "erran": 6016,
    "Ahab\u2019s</w>": 6017,
    "tient</w>": 6018,
    "selon</w>": 6019,
    "d\u2019hu": 6020,
    "antes,</w>": 6021,
    "difficile</w>": 6022,
    "a\u00eet": 6023,
    "charg\u00e9</w>": 6024,
    "douc": 6025,
    "moucho": 6026,
    "passe</w>": 6027,
    "remerci": 6028,
    "sach": 6029,
    "ai-je</w>": 6030,
    "Depuis</w>": 6031,
    "r\u00e9du": 6032,
    "illons</w>": 6033,
    "Dant\u00e8s.</w>": 6034,
    "Qu'": 6035,
    "L'ing\u00e9nieur</w>": 6036,
    "Nemo.</w>": 6037,
    "ects</w>": 6038,
    "number</w>": 6039,
    "divis": 6040,
    "fortunate</w>": 6041,
    "imper": 6042,
    "able;</w>": 6043,
    "look": 6044,
    "proper": 6045,
    "good-": 6046,
    "\u201cWe</w>": 6047,
    "appoint": 6048,
    "cking</w>": 6049,
    "attered</w>": 6050,
    "sure,</w>": 6051,
    "generally</w>": 6052,
    "disco": 6053,
    "aching</w>": 6054,
    "instru": 6055,
    "remain</w>": 6056,
    "alou": 6057,
    "resolu": 6058,
    "Why</w>": 6059,
    "quickly</w>": 6060,
    "drawing</w>": 6061,
    "think": 6062,
    "isted</w>": 6063,
    "ones</w>": 6064,
    "life.</w>": 6065,
    "pru": 6066,
    "mountain": 6067,
    "oll</w>": 6068,
    "quiet</w>": 6069,
    "silenc": 6070,
    "quer": 6071,
    "med</w>": 6072,
    "substance</w>": 6073,
    "lus": 6074,
    "didn\u2019t</w>": 6075,
    "Cat": 6076,
    "Si": 6077,
    "syst": 6078,
    "forces</w>": 6079,
    "aqu": 6080,
    "_P": 6081,
    "Tou": 6082,
    "yp": 6083,
    "ales,</w>": 6084,
    "Jus": 6085,
    "d\u00e9</w>": 6086,
    "d\u00e9velopp": 6087,
    "dessin": 6088,
    "quarante-": 6089,
    "tomba</w>": 6090,
    "arr\u00eater</w>": 6091,
    "Ainsi,</w>": 6092,
    "mauvaise</w>": 6093,
    "portant</w>": 6094,
    "\u00e2tre</w>": 6095,
    "produit</w>": 6096,
    "montra</w>": 6097,
    "combien</w>": 6098,
    "r\u00e9serv": 6099,
    "annon": 6100,
    "voulez-vous</w>": 6101,
    "pr\u00e9cis\u00e9ment</w>": 6102,
    "prirent</w>": 6103,
    "accro": 6104,
    "sembla</w>": 6105,
    "Peut-\u00eatre</w>": 6106,
    "poudre</w>": 6107,
    "\u00eeles</w>": 6108,
    "c\u00f4te,</w>": 6109,
    "nord-": 6110,
    "Mercy,</w>": 6111,
    "Granite-House</w>": 6112,
    "acy</w>": 6113,
    "necessary</w>": 6114,
    "play</w>": 6115,
    "provi": 6116,
    "touch</w>": 6117,
    "pub": 6118,
    "public": 6119,
    "ectu": 6120,
    "olog": 6121,
    "ality</w>": 6122,
    "Though</w>": 6123,
    "\u201cDo</w>": 6124,
    "\u201cIn</w>": 6125,
    "consider</w>": 6126,
    "y?</w>": 6127,
    "step</w>": 6128,
    "settled</w>": 6129,
    "window,</w>": 6130,
    "house": 6131,
    "circul": 6132,
    "talked</w>": 6133,
    "speaking</w>": 6134,
    "twi": 6135,
    "six": 6136,
    "you,\u201d</w>": 6137,
    "worth</w>": 6138,
    "anxious</w>": 6139,
    "sweet</w>": 6140,
    "to-mor": 6141,
    "Very</w>": 6142,
    "justi": 6143,
    "knowing</w>": 6144,
    "madam": 6145,
    "fancy</w>": 6146,
    "p,</w>": 6147,
    "crip": 6148,
    "glance</w>": 6149,
    "knows</w>": 6150,
    "mel": 6151,
    "atement</w>": 6152,
    "learned</w>": 6153,
    "chee": 6154,
    "there\u2019s</w>": 6155,
    "ambi": 6156,
    "Rom": 6157,
    "where": 6158,
    "yph": 6159,
    "crat": 6160,
    "cham": 6161,
    "enchant": 6162,
    "jack": 6163,
    "Flor": 6164,
    "Queequeg": 6165,
    "longs</w>": 6166,
    "eurs.</w>": 6167,
    "hasard</w>": 6168,
    "rest\u00e9</w>": 6169,
    "compter</w>": 6170,
    "pareil</w>": 6171,
    "sortit</w>": 6172,
    "h\u00f4te</w>": 6173,
    "profond</w>": 6174,
    "formait</w>": 6175,
    "pleine</w>": 6176,
    "r\u00e9s</w>": 6177,
    "confiance</w>": 6178,
    "foi,</w>": 6179,
    "parole</w>": 6180,
    "v\u00eat": 6181,
    "\u00e9las!</w>": 6182,
    "comprit</w>": 6183,
    "enfant,</w>": 6184,
    "saut": 6185,
    "\u00e9cut": 6186,
    "reine,</w>": 6187,
    "Rien</w>": 6188,
    "verre</w>": 6189,
    "\u00e9chou": 6190,
    "bord.</w>": 6191,
    "C'\u00e9taient</w>": 6192,
    "l'\u00e9p": 6193,
    "quantit\u00e9</w>": 6194,
    "ouest,</w>": 6195,
    "'</w>": 6196,
    "ouest</w>": 6197,
    "in-": 6198,
    "exec": 6199,
    "stud": 6200,
    "slight</w>": 6201,
    "16": 6202,
    "surr": 6203,
    "it.\u201d</w>": 6204,
    "mother,</w>": 6205,
    "prou": 6206,
    "angr": 6207,
    "dress": 6208,
    "promise</w>": 6209,
    "ired</w>": 6210,
    "hei": 6211,
    "letters</w>": 6212,
    "warm": 6213,
    "guil": 6214,
    "rising</w>": 6215,
    "travell": 6216,
    "age;</w>": 6217,
    "habitants</w>": 6218,
    "court</w>": 6219,
    "berg": 6220,
    "gged</w>": 6221,
    "shout": 6222,
    "rav": 6223,
    "land,</w>": 6224,
    "sias": 6225,
    "yell": 6226,
    "vengeance</w>": 6227,
    "pist": 6228,
    "jet</w>": 6229,
    "RE</w>": 6230,
    "divers</w>": 6231,
    "habitude</w>": 6232,
    "ettes</w>": 6233,
    "isse": 6234,
    "tenaient</w>": 6235,
    "secr": 6236,
    "abond": 6237,
    "crois": 6238,
    "bonheur</w>": 6239,
    "fid\u00e8": 6240,
    "ordres</w>": 6241,
    "et\u00e9</w>": 6242,
    "prenez</w>": 6243,
    "soyez</w>": 6244,
    "nous": 6245,
    "bouche</w>": 6246,
    "enlev": 6247,
    "hautes</w>": 6248,
    "eaux.</w>": 6249,
    "c\u00f4tes</w>": 6250,
    "jet\u00e9</w>": 6251,
    "mademois": 6252,
    "nord</w>": 6253,
    "--Vous</w>": 6254,
    "Merc\u00e9d\u00e8s</w>": 6255,
    "--------": 6256,
    "proper</w>": 6257,
    "reached</w>": 6258,
    "mun": 6259,
    "think,</w>": 6260,
    "innoc": 6261,
    "blind": 6262,
    "watch</w>": 6263,
    "bound</w>": 6264,
    "receiv": 6265,
    "shot</w>": 6266,
    "attrac": 6267,
    "slight": 6268,
    "fall</w>": 6269,
    "Their</w>": 6270,
    "1</w>": 6271,
    "iment</w>": 6272,
    "astonish": 6273,
    "seven</w>": 6274,
    "Hur": 6275,
    "possibly</w>": 6276,
    "tely</w>": 6277,
    "purpose</w>": 6278,
    "polit": 6279,
    "word,</w>": 6280,
    "discus": 6281,
    "sang</w>": 6282,
    "fallen</w>": 6283,
    "quad": 6284,
    "promp": 6285,
    "Some": 6286,
    "interval": 6287,
    "incess": 6288,
    "While</w>": 6289,
    "arrive</w>": 6290,
    "truc": 6291,
    "fer,</w>": 6292,
    "ings.</w>": 6293,
    "vive</w>": 6294,
    "large,</w>": 6295,
    "dil": 6296,
    "mortal</w>": 6297,
    "TER": 6298,
    "quet</w>": 6299,
    "ash</w>": 6300,
    "anis": 6301,
    "wall": 6302,
    "cree": 6303,
    "whales,</w>": 6304,
    "Frankl": 6305,
    "chari": 6306,
    "eh</w>": 6307,
    "Pross,</w>": 6308,
    "Kurtz</w>": 6309,
    "gauche</w>": 6310,
    "r\u00e8": 6311,
    "seul,</w>": 6312,
    "ignit</w>": 6313,
    "l\u2019un</w>": 6314,
    "inconnu</w>": 6315,
    "s\u2019\u00e9cri": 6316,
    "genre</w>": 6317,
    "d\u00e9b": 6318,
    "raisonn": 6319,
    "imm\u00e9di": 6320,
    "facilement</w>": 6321,
    "emp\u00eacher</w>": 6322,
    "couv": 6323,
    "font</w>": 6324,
    "trist": 6325,
    "ville,</w>": 6326,
    "\u00e9mer": 6327,
    "p\u00e8": 6328,
    "feu,</w>": 6329,
    "arri\u00e8re</w>": 6330,
    "malhe": 6331,
    "mois,</w>": 6332,
    "capitaine.</w>": 6333,
    "ch\u00e2teau</w>": 6334,
    "fus</w>": 6335,
    "ouchure</w>": 6336,
    "navires</w>": 6337,
    "Danglars,</w>": 6338,
    "ers;</w>": 6339,
    "ities</w>": 6340,
    "ising</w>": 6341,
    "doubt": 6342,
    "piec": 6343,
    "spee": 6344,
    "conditions</w>": 6345,
    "girl</w>": 6346,
    "wards,</w>": 6347,
    "ase</w>": 6348,
    "exerc": 6349,
    "not.</w>": 6350,
    "ves.</w>": 6351,
    "quick</w>": 6352,
    "et;</w>": 6353,
    "Geor": 6354,
    "had,</w>": 6355,
    "Jam": 6356,
    "believed</w>": 6357,
    "ises</w>": 6358,
    "possibil": 6359,
    "supposed</w>": 6360,
    "ables.</w>": 6361,
    "will,</w>": 6362,
    "prepar": 6363,
    "of,</w>": 6364,
    "regar": 6365,
    "wed": 6366,
    "envelop": 6367,
    "destruc": 6368,
    "fic</w>": 6369,
    "orm": 6370,
    "tig": 6371,
    "rust": 6372,
    "captain</w>": 6373,
    "voyage,</w>": 6374,
    "illa</w>": 6375,
    "crime</w>": 6376,
    "unes</w>": 6377,
    "tel</w>": 6378,
    "route,</w>": 6379,
    "d\u00e9vor": 6380,
    "n\u00e9</w>": 6381,
    "sez-": 6382,
    "enne,</w>": 6383,
    "peur</w>": 6384,
    "d\u00e9termin": 6385,
    "d\u00e9tach": 6386,
    "port\u00e9e</w>": 6387,
    "soir": 6388,
    "cris</w>": 6389,
    "indiqu": 6390,
    "espace</w>": 6391,
    "fr\u00e8re</w>": 6392,
    "h\u00e2": 6393,
    "bais": 6394,
    "muraille</w>": 6395,
    "Milor": 6396,
    "\u00e9clat</w>": 6397,
    "dirig": 6398,
    "atmosph\u00e8re</w>": 6399,
    "--Mais</w>": 6400,
    "niveau</w>": 6401,
    "\u00e9tac": 6402,
    "couches</w>": 6403,
    "Lincoln</w>": 6404,
    "lisi\u00e8re</w>": 6405,
    "e--": 6406,
    "ish,</w>": 6407,
    "and-": 6408,
    "affor": 6409,
    "adu": 6410,
    "fool": 6411,
    "rement,</w>": 6412,
    "spoken</w>": 6413,
    "character</w>": 6414,
    "Phil": 6415,
    "crimin": 6416,
    "doing</w>": 6417,
    "considered</w>": 6418,
    "capr": 6419,
    "wore</w>": 6420,
    "arrived</w>": 6421,
    "London</w>": 6422,
    "like": 6423,
    "violent</w>": 6424,
    "particularly</w>": 6425,
    "opini": 6426,
    "fail": 6427,
    "science</w>": 6428,
    "suppli": 6429,
    "ides</w>": 6430,
    "surprised</w>": 6431,
    "chief": 6432,
    "sacri": 6433,
    "instruc": 6434,
    "effect</w>": 6435,
    "phe": 6436,
    "Bes": 6437,
    "enem": 6438,
    "embarrass": 6439,
    "road</w>": 6440,
    "pointed</w>": 6441,
    "here.</w>": 6442,
    "gon": 6443,
    "esc": 6444,
    "hands,</w>": 6445,
    "foot</w>": 6446,
    "emar": 6447,
    "dog": 6448,
    "sea.</w>": 6449,
    "ition</w>": 6450,
    "issu": 6451,
    "touching</w>": 6452,
    "ivory</w>": 6453,
    "craf": 6454,
    "levi": 6455,
    "Starbuck,</w>": 6456,
    "propre</w>": 6457,
    "iste</w>": 6458,
    "femmes</w>": 6459,
    "\u00e9nag": 6460,
    "p\u00e2le</w>": 6461,
    "calme</w>": 6462,
    "adversai": 6463,
    "devenu</w>": 6464,
    "quitt\u00e9</w>": 6465,
    "lour": 6466,
    "dame</w>": 6467,
    "mousquetaire</w>": 6468,
    "premi\u00e8res</w>": 6469,
    "tiss": 6470,
    "Lorsque</w>": 6471,
    "pont</w>": 6472,
    "asse,</w>": 6473,
    "ex\u00e9cu": 6474,
    "Mes</w>": 6475,
    "gigant": 6476,
    "gigantes": 6477,
    "bateau</w>": 6478,
    "l'\u00e9tat</w>": 6479,
    "c\u00e9tac": 6480,
    "were,</w>": 6481,
    "conveni": 6482,
    "a\u2019s</w>": 6483,
    "while,</w>": 6484,
    "human": 6485,
    "ring</w>": 6486,
    "extrem": 6487,
    "phras": 6488,
    "married</w>": 6489,
    "\u201c_": 6490,
    "acked</w>": 6491,
    "listened</w>": 6492,
    "appeare": 6493,
    "lived</w>": 6494,
    "Perhap": 6495,
    "first,</w>": 6496,
    "ade": 6497,
    "activ": 6498,
    "wro": 6499,
    "med,</w>": 6500,
    "ton.</w>": 6501,
    "eight</w>": 6502,
    "enter</w>": 6503,
    "f.</w>": 6504,
    "indivi": 6505,
    "encoun": 6506,
    "manag": 6507,
    "ille;</w>": 6508,
    "aug": 6509,
    "O\u00f9</w>": 6510,
    "kno": 6511,
    "toss": 6512,
    "Har": 6513,
    "alist": 6514,
    "assass": 6515,
    "shadow</w>": 6516,
    "agu": 6517,
    "reau</w>": 6518,
    "saill": 6519,
    "bra": 6520,
    "Lucie</w>": 6521,
    "quelcon": 6522,
    "quelques-": 6523,
    "enti\u00e8rement</w>": 6524,
    "cuis": 6525,
    "l\u00e8vres</w>": 6526,
    "bons</w>": 6527,
    "dites</w>": 6528,
    "libert\u00e9</w>": 6529,
    "g\u00e9n\u00e9ral</w>": 6530,
    "j\u2019avais</w>": 6531,
    "dit:</w>": 6532,
    "\u00e9te": 6533,
    "retrai": 6534,
    "puisse</w>": 6535,
    "envoyer</w>": 6536,
    "Grimaud</w>": 6537,
    "myst\u00e9ri": 6538,
    "conna\u00eetre</w>": 6539,
    "vingt-cinq</w>": 6540,
    "aient.</w>": 6541,
    "vite</w>": 6542,
    "prisonnier</w>": 6543,
    "rivi\u00e8re</w>": 6544,
    "perc": 6545,
    "oc\u00e9": 6546,
    "l'abb\u00e9</w>": 6547,
    "proved</w>": 6548,
    "superi": 6549,
    "sely</w>": 6550,
    "remarkable</w>": 6551,
    "cs</w>": 6552,
    "Ger": 6553,
    "himself.</w>": 6554,
    "repro": 6555,
    "thi": 6556,
    "meet": 6557,
    "expressed</w>": 6558,
    "2</w>": 6559,
    "How": 6560,
    "mention</w>": 6561,
    "ming</w>": 6562,
    "assembl": 6563,
    "added,</w>": 6564,
    "hast": 6565,
    "child": 6566,
    "ound.</w>": 6567,
    "fact</w>": 6568,
    "notice</w>": 6569,
    "itself,</w>": 6570,
    "wholly</w>": 6571,
    "c,</w>": 6572,
    "seize</w>": 6573,
    "Nich": 6574,
    "No,</w>": 6575,
    "happened</w>": 6576,
    "thought,</w>": 6577,
    "et-": 6578,
    "trying</w>": 6579,
    "marked</w>": 6580,
    "last": 6581,
    "loy": 6582,
    "oh!</w>": 6583,
    "paper</w>": 6584,
    "latitu": 6585,
    "parall": 6586,
    "excur": 6587,
    "Winter,</w>": 6588,
    "probl": 6589,
    "hat</w>": 6590,
    "graphi": 6591,
    "erie</w>": 6592,
    "aye,</w>": 6593,
    "hara": 6594,
    "Jerr": 6595,
    "visite</w>": 6596,
    "aujourd\u2019hu": 6597,
    "quelque": 6598,
    "aux.</w>": 6599,
    "v\u00e9rit\u00e9,</w>": 6600,
    "convain": 6601,
    "a\u00ef": 6602,
    "longueur</w>": 6603,
    "serais</w>": 6604,
    "Pourquoi</w>": 6605,
    "issent</w>": 6606,
    "projet": 6607,
    "objets</w>": 6608,
    "immob": 6609,
    "arbres,</w>": 6610,
    "gr\u00e8v": 6611,
    "harpon": 6612,
    "Ardan</w>": 6613,
    "antic</w>": 6614,
    "passag": 6615,
    "Elizabeth": 6616,
    "choo": 6617,
    "ney,</w>": 6618,
    "heart,</w>": 6619,
    "arily</w>": 6620,
    "oss": 6621,
    "previous</w>": 6622,
    "Hen": 6623,
    "yiel": 6624,
    "propos": 6625,
    "send</w>": 6626,
    "_that": 6627,
    "Then,</w>": 6628,
    "things,</w>": 6629,
    "common": 6630,
    "plain</w>": 6631,
    "note</w>": 6632,
    "beside</w>": 6633,
    "ards,</w>": 6634,
    "ew": 6635,
    "seated</w>": 6636,
    "fy</w>": 6637,
    "Ste": 6638,
    "don</w>": 6639,
    "use": 6640,
    "cess": 6641,
    "commis": 6642,
    "dreadful</w>": 6643,
    "Yes,</w>": 6644,
    "house.</w>": 6645,
    "beaux</w>": 6646,
    "fifty</w>": 6647,
    "sat": 6648,
    "vague</w>": 6649,
    "accent</w>": 6650,
    "sleep</w>": 6651,
    "branches</w>": 6652,
    "rer</w>": 6653,
    "mighty</w>": 6654,
    "absor": 6655,
    "ires,</w>": 6656,
    "pistol": 6657,
    "tonn": 6658,
    "passeng": 6659,
    "oir</w>": 6660,
    "Uni": 6661,
    "airi": 6662,
    "octob": 6663,
    "r\u00e9ponse</w>": 6664,
    "sit\u00e9</w>": 6665,
    "XVII": 6666,
    "qu\u2019en</w>": 6667,
    "l\u2019honneur</w>": 6668,
    "avait-il</w>": 6669,
    "lettre,</w>": 6670,
    "\u00e9:</w>": 6671,
    "renferm": 6672,
    "m\u00e9l": 6673,
    "pouvez</w>": 6674,
    "n\u00e9": 6675,
    "vaut</w>": 6676,
    "tr\u00e9sor": 6677,
    "sup\u00e9rieure</w>": 6678,
    "ainsi": 6679,
    "duquel</w>": 6680,
    "derniers</w>": 6681,
    "cela": 6682,
    "coeur,</w>": 6683,
    "reviend": 6684,
    "dez-": 6685,
    "souffr": 6686,
    "viens</w>": 6687,
    "ateurs</w>": 6688,
    "\u00e9tendu": 6689,
    "d\u00eener</w>": 6690,
    "Baz": 6691,
    "morceau</w>": 6692,
    "ann\u00e9e</w>": 6693,
    "-je.</w>": 6694,
    "qu'en</w>": 6695,
    "l'Am\u00e9ri": 6696,
    "sous-mar": 6697,
    "mollus": 6698,
    "charb": 6699,
    "Canadien.</w>": 6700,
    "acide</w>": 6701,
    "for\u00eats</w>": 6702,
    "Jup</w>": 6703,
    "corral</w>": 6704,
    "Maston</w>": 6705,
    "author": 6706,
    "Bingley,</w>": 6707,
    "by": 6708,
    "Sco": 6709,
    "Inde": 6710,
    "iled</w>": 6711,
    "agreeable</w>": 6712,
    "children</w>": 6713,
    "conj": 6714,
    "intelligence</w>": 6715,
    "behavi": 6716,
    "up.</w>": 6717,
    "third</w>": 6718,
    "aise,</w>": 6719,
    "thin</w>": 6720,
    "\u201cThen</w>": 6721,
    "ise.</w>": 6722,
    "conversation,</w>": 6723,
    "grave</w>": 6724,
    "sensible</w>": 6725,
    "expect</w>": 6726,
    "prog": 6727,
    "yester": 6728,
    "it?</w>": 6729,
    "words,</w>": 6730,
    "importance</w>": 6731,
    "frequently</w>": 6732,
    "professi": 6733,
    "prov": 6734,
    "money</w>": 6735,
    "plainly</w>": 6736,
    "burst</w>": 6737,
    "mark</w>": 6738,
    "invol": 6739,
    "ne,</w>": 6740,
    "nature,</w>": 6741,
    "leaning</w>": 6742,
    "distur": 6743,
    "aled</w>": 6744,
    "ands</w>": 6745,
    "rage</w>": 6746,
    "revol": 6747,
    "Hat": 6748,
    "glass</w>": 6749,
    "TER</w>": 6750,
    "es\u2014": 6751,
    "holl": 6752,
    "Ru": 6753,
    "chant</w>": 6754,
    "sain": 6755,
    "Sim": 6756,
    "petites</w>": 6757,
    "Darnay</w>": 6758,
    "\u00e9vri": 6759,
    "l'\u00e9quip": 6760,
    "comte</w>": 6761,
    "demeura</w>": 6762,
    "rapidit\u00e9</w>": 6763,
    "tif</w>": 6764,
    "l\u2019air</w>": 6765,
    "recul": 6766,
    "renouv": 6767,
    "l\u2019homme</w>": 6768,
    "\u00e9par": 6769,
    "bras,</w>": 6770,
    "sommet</w>": 6771,
    "certaines</w>": 6772,
    "go\u00fb": 6773,
    "apercev": 6774,
    "Fran\u00e7": 6775,
    "m\u2019avez</w>": 6776,
    "retourna</w>": 6777,
    "J\u2019ai</w>": 6778,
    "Toute": 6779,
    "r\u00e9pondre</w>": 6780,
    "fra\u00ee": 6781,
    "compris</w>": 6782,
    "trah": 6783,
    "vu,</w>": 6784,
    "Mousquet": 6785,
    "\u00e9pouvant": 6786,
    "\u00abOh!</w>": 6787,
    "abat": 6788,
    "faits</w>": 6789,
    "d\u00e9tru": 6790,
    "secou": 6791,
    "j\u00e9": 6792,
    "boulet</w>": 6793,
    "plomb": 6794,
    "j'\u00e9tais</w>": 6795,
    "m\u00e8tres,</w>": 6796,
    "l'Oc\u00e9an</w>": 6797,
    "secu": 6798,
    "party</w>": 6799,
    "middle</w>": 6800,
    "lot,</w>": 6801,
    "attempt</w>": 6802,
    "foot": 6803,
    "len": 6804,
    "utter": 6805,
    "girl": 6806,
    "connected</w>": 6807,
    "\u201cyou</w>": 6808,
    "that.</w>": 6809,
    "come,</w>": 6810,
    "paid</w>": 6811,
    "repl": 6812,
    "sorry</w>": 6813,
    "twel": 6814,
    "king": 6815,
    "seek</w>": 6816,
    "spite</w>": 6817,
    "resi": 6818,
    "ten,</w>": 6819,
    "joined</w>": 6820,
    "vac": 6821,
    "stay</w>": 6822,
    "watching</w>": 6823,
    "ign</w>": 6824,
    "holding</w>": 6825,
    "home,</w>": 6826,
    "cle,</w>": 6827,
    "dep": 6828,
    "by,</w>": 6829,
    "happin": 6830,
    "ouse</w>": 6831,
    "speed": 6832,
    "se!</w>": 6833,
    "py": 6834,
    "attendant</w>": 6835,
    ";\u2014": 6836,
    "native</w>": 6837,
    "dden</w>": 6838,
    "div": 6839,
    "tus</w>": 6840,
    "base</w>": 6841,
    "fier": 6842,
    "dorm": 6843,
    "Jer": 6844,
    "signal": 6845,
    "ender</w>": 6846,
    "Saint</w>": 6847,
    "Gas": 6848,
    "interrog": 6849,
    "Carton</w>": 6850,
    "Monseigneur</w>": 6851,
    "f\u00e9vri": 6852,
    "jeunes</w>": 6853,
    "volont": 6854,
    "ferme</w>": 6855,
    "dites-": 6856,
    "courut</w>": 6857,
    "cria</w>": 6858,
    "essu": 6859,
    "davant": 6860,
    "aviez</w>": 6861,
    "Louv": 6862,
    "d\u2019avoir</w>": 6863,
    "soixante</w>": 6864,
    "camar": 6865,
    "oreille</w>": 6866,
    "droite</w>": 6867,
    "d\u00e9clar": 6868,
    "regagn": 6869,
    "rien.</w>": 6870,
    "L\u00e0</w>": 6871,
    "gibi": 6872,
    "Seulement,</w>": 6873,
    "officier</w>": 6874,
    "froi": 6875,
    "r\u00e9sultat</w>": 6876,
    "chien</w>": 6877,
    "Ketty</w>": 6878,
    "coque</w>": 6879,
    "j'en</w>": 6880,
    "l'ar": 6881,
    "nord,</w>": 6882,
    "l'_A": 6883,
    "yed</w>": 6884,
    "buil": 6885,
    "gentle</w>": 6886,
    "latter</w>": 6887,
    "ins.</w>": 6888,
    "her;</w>": 6889,
    "ments,</w>": 6890,
    "manners</w>": 6891,
    "\u201cThey</w>": 6892,
    "ounding</w>": 6893,
    "obliged</w>": 6894,
    "etc": 6895,
    "featu": 6896,
    "discovered</w>": 6897,
    "\u201cShe</w>": 6898,
    "e!\u201d</w>": 6899,
    "ely.</w>": 6900,
    "dence</w>": 6901,
    "absolutely</w>": 6902,
    "cuse</w>": 6903,
    "family,</w>": 6904,
    "convinced</w>": 6905,
    "ster</w>": 6906,
    "duty</w>": 6907,
    "ining</w>": 6908,
    "t!</w>": 6909,
    "\u201cT": 6910,
    "piece</w>": 6911,
    "Ital": 6912,
    "ging</w>": 6913,
    "exclaim": 6914,
    "beginning</w>": 6915,
    "carry</w>": 6916,
    "coach": 6917,
    "condition</w>": 6918,
    "gras": 6919,
    "ster": 6920,
    "streets</w>": 6921,
    "hanging</w>": 6922,
    "traces</w>": 6923,
    "edi": 6924,
    "CHAPTER</w>": 6925,
    "hung</w>": 6926,
    "ashing</w>": 6927,
    "rac": 6928,
    "er:</w>": 6929,
    "black": 6930,
    "furi": 6931,
    "papers</w>": 6932,
    "entire</w>": 6933,
    "moul": 6934,
    "Mont": 6935,
    "fugi": 6936,
    "swif": 6937,
    "rob": 6938,
    "taill": 6939,
    "hai": 6940,
    "alof": 6941,
    "athan</w>": 6942,
    "ambo": 6943,
    "demain</w>": 6944,
    "chasse</w>": 6945,
    "descendit</w>": 6946,
    "objet</w>": 6947,
    "surpris</w>": 6948,
    "posa</w>": 6949,
    "comptait</w>": 6950,
    "justement</w>": 6951,
    "iers</w>": 6952,
    "moi-": 6953,
    "ferait</w>": 6954,
    "\u00abMais</w>": 6955,
    "sortir</w>": 6956,
    "aurai</w>": 6957,
    "lignes</w>": 6958,
    "tour,</w>": 6959,
    "re\u00e7u</w>": 6960,
    "veille</w>": 6961,
    "veu": 6962,
    "salle</w>": 6963,
    "connaissance</w>": 6964,
    "conduire</w>": 6965,
    "ait-ce</w>": 6966,
    "escalier</w>": 6967,
    "lueur</w>": 6968,
    "gagner</w>": 6969,
    "obscurit\u00e9</w>": 6970,
    "Coquen": 6971,
    "plus.</w>": 6972,
    "derni\u00e8res</w>": 6973,
    "fusil</w>": 6974,
    "Toutefois,</w>": 6975,
    "sai</w>": 6976,
    "jan": 6977,
    "l'horizon</w>": 6978,
    "temp\u00e9rature</w>": 6979,
    "Gun-Club</w>": 6980,
    "vely</w>": 6981,
    "otherwise</w>": 6982,
    "\u201cM": 6983,
    "possession</w>": 6984,
    "hearing</w>": 6985,
    "William</w>": 6986,
    "ends</w>": 6987,
    "meant</w>": 6988,
    "gentlemen</w>": 6989,
    "dest</w>": 6990,
    "spirits</w>": 6991,
    "stranger</w>": 6992,
    "bran": 6993,
    "4</w>": 6994,
    "scor": 6995,
    "opportunity</w>": 6996,
    "oner</w>": 6997,
    "unknown</w>": 6998,
    "aunt</w>": 6999,
    "directly</w>": 7000,
    "assured</w>": 7001,
    "ks.</w>": 7002,
    "our.</w>": 7003,
    "wrote</w>": 7004,
    "open": 7005,
    "15": 7006,
    "Right</w>": 7007,
    "os</w>": 7008,
    "circumstances</w>": 7009,
    "rit": 7010,
    "purpo": 7011,
    "breath": 7012,
    "table.</w>": 7013,
    "yes,</w>": 7014,
    "attentiv": 7015,
    "investi": 7016,
    "river</w>": 7017,
    "wav": 7018,
    "\u2019re</w>": 7019,
    "rail": 7020,
    "les.</w>": 7021,
    "monster</w>": 7022,
    "ler</w>": 7023,
    "nac": 7024,
    "lord</w>": 7025,
    "Dun": 7026,
    "gram": 7027,
    "corrid": 7028,
    "ti</w>": 7029,
    "sable</w>": 7030,
    "main.</w>": 7031,
    "sable,</w>": 7032,
    "sie</w>": 7033,
    "Colum": 7034,
    "Manette,</w>": 7035,
    "Jacques</w>": 7036,
    "valet</w>": 7037,
    "dos</w>": 7038,
    "nombreux</w>": 7039,
    "\u00e9dit": 7040,
    "l'im": 7041,
    "curieux</w>": 7042,
    "stre</w>": 7043,
    "Aramis.</w>": 7044,
    "couleur</w>": 7045,
    "ateur,</w>": 7046,
    "fois.</w>": 7047,
    "\u00e9puis": 7048,
    "mena\u00e7": 7049,
    "Aussit": 7050,
    "pierre</w>": 7051,
    "semblaient</w>": 7052,
    "jusqu\u2019au</w>": 7053,
    "reprendre</w>": 7054,
    "avanc": 7055,
    "an\u00e7ait</w>": 7056,
    "mots,</w>": 7057,
    "ste</w>": 7058,
    "rois</w>": 7059,
    "for\u00eat</w>": 7060,
    "repr\u00e9sent": 7061,
    "arrivait</w>": 7062,
    "ombre</w>": 7063,
    "onc,</w>": 7064,
    "banc": 7065,
    "libre</w>": 7066,
    "placer</w>": 7067,
    "aupr\u00e8s</w>": 7068,
    "flanc": 7069,
    "ph\u00e9n": 7070,
    "dut</w>": 7071,
    "n'\u00e9taient</w>": 7072,
    "\u00e9chant": 7073,
    "embarc": 7074,
    "Top,</w>": 7075,
    "delight": 7076,
    "admirable</w>": 7077,
    "ind,</w>": 7078,
    "satisfied</w>": 7079,
    "ter-": 7080,
    "journey</w>": 7081,
    "meaning</w>": 7082,
    "seldom</w>": 7083,
    "oursel": 7084,
    "good": 7085,
    "endi": 7086,
    "ors.</w>": 7087,
    "thes": 7088,
    "Had</w>": 7089,
    "descrip": 7090,
    "serious</w>": 7091,
    "forgo": 7092,
    "ter;</w>": 7093,
    "e_</w>": 7094,
    "per.</w>": 7095,
    "draw</w>": 7096,
    "Did</w>": 7097,
    "cand": 7098,
    ",--": 7099,
    "habit</w>": 7100,
    "musi": 7101,
    "savage</w>": 7102,
    "pay</w>": 7103,
    "acco": 7104,
    "country,</w>": 7105,
    "ans.</w>": 7106,
    "prosp": 7107,
    "happen": 7108,
    "trium": 7109,
    "occupied</w>": 7110,
    "aught</w>": 7111,
    "trust": 7112,
    "permission</w>": 7113,
    "parts</w>": 7114,
    "justic": 7115,
    "possible.</w>": 7116,
    "lips</w>": 7117,
    ".,</w>": 7118,
    "perceived</w>": 7119,
    "individu": 7120,
    "dy</w>": 7121,
    "through": 7122,
    "old,</w>": 7123,
    "bottom</w>": 7124,
    "ine": 7125,
    "tears</w>": 7126,
    "remor": 7127,
    "propor": 7128,
    "sag": 7129,
    "tortu": 7130,
    "it-": 7131,
    "golden</w>": 7132,
    "ains,</w>": 7133,
    "Nap": 7134,
    "prison,</w>": 7135,
    "instants</w>": 7136,
    "tint</w>": 7137,
    "Tash": 7138,
    "baron</w>": 7139,
    "hach": 7140,
    "wine-": 7141,
    "reconnu</w>": 7142,
    "\u00e8de</w>": 7143,
    "chois": 7144,
    "s\u00fbr</w>": 7145,
    "\u00e9poque</w>": 7146,
    "gentilhomme</w>": 7147,
    "mourir</w>": 7148,
    "pleur": 7149,
    "langue</w>": 7150,
    "Celu": 7151,
    "m\u2019en</w>": 7152,
    "laquais</w>": 7153,
    "magnifique</w>": 7154,
    "connais</w>": 7155,
    "trouvaient</w>": 7156,
    "peut-\u00eatre,</w>": 7157,
    "expli": 7158,
    "\u00e9vit": 7159,
    "aissez</w>": 7160,
    "profonde</w>": 7161,
    "v\u00e9ritablement</w>": 7162,
    "accou": 7163,
    "\u00e9cras": 7164,
    "n\u00e9cessaire</w>": 7165,
    "ph\u00e9nom": 7166,
    "Danglars</w>": 7167,
    "j'avais</w>": 7168,
    "l'a</w>": 7169,
    "d'avoir</w>": 7170,
    "s'ils</w>": 7171,
    "s'\u00e9tend": 7172,
    "l'embouchure</w>": 7173,
    "k;</w>": 7174,
    "complete</w>": 7175,
    "ness": 7176,
    "construction</w>": 7177,
    "extre": 7178,
    "ousness</w>": 7179,
    "indu": 7180,
    "obli": 7181,
    "impression</w>": 7182,
    "Bour": 7183,
    "spirit</w>": 7184,
    "wife,</w>": 7185,
    "putting</w>": 7186,
    "glanced</w>": 7187,
    "lines</w>": 7188,
    "emon": 7189,
    "extraordinary</w>": 7190,
    "compas": 7191,
    "Im": 7192,
    "\u201cO": 7193,
    "very": 7194,
    "Mery": 7195,
    "attended</w>": 7196,
    "glancing</w>": 7197,
    "le!</w>": 7198,
    "edit": 7199,
    "jum": 7200,
    "Every</w>": 7201,
    "well.</w>": 7202,
    "short,</w>": 7203,
    "reading</w>": 7204,
    "amaz": 7205,
    "remo": 7206,
    "emo": 7207,
    "follow</w>": 7208,
    "law</w>": 7209,
    "work,</w>": 7210,
    "exceedingly</w>": 7211,
    "earnest": 7212,
    "suffer": 7213,
    "Ag": 7214,
    "Lad": 7215,
    "future</w>": 7216,
    "week</w>": 7217,
    "\u201cC": 7218,
    "nephe": 7219,
    "mise</w>": 7220,
    "famous</w>": 7221,
    "violence</w>": 7222,
    "though,</w>": 7223,
    "discover": 7224,
    "lifted</w>": 7225,
    "irs,</w>": 7226,
    "pin": 7227,
    "iver</w>": 7228,
    "stern": 7229,
    "bab": 7230,
    "brus": 7231,
    "whit": 7232,
    "globe</w>": 7233,
    "ir;</w>": 7234,
    "devil</w>": 7235,
    "lit,</w>": 7236,
    "mars,</w>": 7237,
    "whale.</w>": 7238,
    "Tashte": 7239,
    "igu": 7240,
    "Pi": 7241,
    "Bast": 7242,
    "Tellson\u2019s</w>": 7243,
    "Anto": 7244,
    "tenu</w>": 7245,
    "sol,</w>": 7246,
    "Autri": 7247,
    "tit</w>": 7248,
    "pr\u00e9s": 7249,
    "geste</w>": 7250,
    "vous-": 7251,
    "diable</w>": 7252,
    "croyait</w>": 7253,
    "craindre</w>": 7254,
    "l\u00e0-": 7255,
    "ext\u00e9ri": 7256,
    "H\u00e9las!</w>": 7257,
    "manquait</w>": 7258,
    "parle</w>": 7259,
    "aient-ils</w>": 7260,
    "r\u00e9</w>": 7261,
    "Auc": 7262,
    "compte,</w>": 7263,
    "\u00e9to": 7264,
    "glac": 7265,
    "produis": 7266,
    "haraon": 7267,
    "d'abord,</w>": 7268,
    "golfe</w>": 7269,
    "l'abb\u00e9,</w>": 7270,
    "Columbi": 7271,
    "stric": 7272,
    "equal</w>": 7273,
    "appreh": 7274,
    "luck": 7275,
    "now.</w>": 7276,
    "amus": 7277,
    "ember": 7278,
    "tong": 7279,
    "es.\u201d</w>": 7280,
    "pleased</w>": 7281,
    "dear": 7282,
    "I_</w>": 7283,
    "associ": 7284,
    "indign": 7285,
    "moment.</w>": 7286,
    "suppo": 7287,
    "ily,</w>": 7288,
    "tres": 7289,
    "hood</w>": 7290,
    "trust</w>": 7291,
    "fire,</w>": 7292,
    "effort</w>": 7293,
    "Lady": 7294,
    "correc": 7295,
    "contempl": 7296,
    "hot</w>": 7297,
    "inclu": 7298,
    "ens": 7299,
    "evil</w>": 7300,
    "break</w>": 7301,
    "excit": 7302,
    "point.</w>": 7303,
    "confu": 7304,
    "wonderful</w>": 7305,
    "pointing</w>": 7306,
    "afterno": 7307,
    "le?</w>": 7308,
    "astes</w>": 7309,
    "hill": 7310,
    "moments</w>": 7311,
    "patron</w>": 7312,
    "wilder": 7313,
    "instant": 7314,
    "fil</w>": 7315,
    "tter</w>": 7316,
    "darkness</w>": 7317,
    "wooden</w>": 7318,
    "oy": 7319,
    "crowd</w>": 7320,
    "t\u2019": 7321,
    "Mock</w>": 7322,
    "Turt": 7323,
    "Gryph": 7324,
    "etern": 7325,
    "Green": 7326,
    "recor": 7327,
    "orable</w>": 7328,
    "IL": 7329,
    "Bar": 7330,
    "prairi": 7331,
    "iller</w>": 7332,
    "avis</w>": 7333,
    "urs,</w>": 7334,
    "d\u00e9e</w>": 7335,
    "CHAPIT": 7336,
    "CHAPITRE</w>": 7337,
    "ri</w>": 7338,
    "cons\u00e9quent,</w>": 7339,
    "cour</w>": 7340,
    "pronon": 7341,
    "sac</w>": 7342,
    "C\u2019\u00e9tait</w>": 7343,
    "l\u2019instant</w>": 7344,
    "s\u2019\u00e9l": 7345,
    "renouvel": 7346,
    "compagnon</w>": 7347,
    "Enfin</w>": 7348,
    "mot,</w>": 7349,
    "g\u00ea": 7350,
    "Tu</w>": 7351,
    "devoir</w>": 7352,
    "ensuite</w>": 7353,
    "trom": 7354,
    "seront</w>": 7355,
    "Donc,</w>": 7356,
    "illonn": 7357,
    "\u00eates-vous</w>": 7358,
    "auxquels</w>": 7359,
    "r\u00e9gu": 7360,
    "eure,</w>": 7361,
    "commissai": 7362,
    "\u00e8re;</w>": 7363,
    "membres</w>": 7364,
    "_Pharaon": 7365,
    "--Non,</w>": 7366,
    "parois</w>": 7367,
    "regular</w>": 7368,
    "business,</w>": 7369,
    "minu": 7370,
    "requi": 7371,
    "estim": 7372,
    "mouth</w>": 7373,
    "gloom": 7374,
    "soo": 7375,
    "Charlotte</w>": 7376,
    "hypo": 7377,
    "es,\u201d</w>": 7378,
    "\u201cWhen</w>": 7379,
    "truth</w>": 7380,
    "acquainted</w>": 7381,
    "highly</w>": 7382,
    "\u201cCom": 7383,
    "Upon</w>": 7384,
    "ure.</w>": 7385,
    "surprise,</w>": 7386,
    "Perhaps</w>": 7387,
    "express</w>": 7388,
    "boy</w>": 7389,
    "fulness</w>": 7390,
    "encourag": 7391,
    "more": 7392,
    "\u201cNot</w>": 7393,
    "similar</w>": 7394,
    "moving</w>": 7395,
    ",--</w>": 7396,
    "considering</w>": 7397,
    "ed!</w>": 7398,
    "lodg": 7399,
    "before.</w>": 7400,
    "place.</w>": 7401,
    "siz": 7402,
    "metho": 7403,
    "ect.</w>": 7404,
    "hin": 7405,
    "countenance</w>": 7406,
    "ats,</w>": 7407,
    "reliev": 7408,
    "child,</w>": 7409,
    "vain</w>": 7410,
    "cip": 7411,
    "drove</w>": 7412,
    "green</w>": 7413,
    "trees</w>": 7414,
    "bearing</w>": 7415,
    "poul": 7416,
    "ad.</w>": 7417,
    "shut</w>": 7418,
    "fate</w>": 7419,
    "beheld</w>": 7420,
    "Heav": 7421,
    "it,\u201d</w>": 7422,
    "TH": 7423,
    "works</w>": 7424,
    "trademar": 7425,
    "ny</w>": 7426,
    "serp": 7427,
    "Dor": 7428,
    "aked</w>": 7429,
    "wondr": 7430,
    "gest": 7431,
    "thee</w>": 7432,
    "Feli": 7433,
    "aker</w>": 7434,
    "comprom": 7435,
    "inexplic": 7436,
    "doll": 7437,
    "anter": 7438,
    "suite,</w>": 7439,
    "aille,</w>": 7440,
    "braham": 7441,
    "Pross</w>": 7442,
    "f\u00e9": 7443,
    "l\u2019ai</w>": 7444,
    "heureusement,</w>": 7445,
    "d\u00e9ment</w>": 7446,
    "l\u00e0.</w>": 7447,
    "moindre</w>": 7448,
    "cardinal.</w>": 7449,
    "m\u00e9mo": 7450,
    "geait</w>": 7451,
    "Parce</w>": 7452,
    "rentra</w>": 7453,
    "voir.</w>": 7454,
    "eraient</w>": 7455,
    "pas;</w>": 7456,
    "d\u00e9cid\u00e9</w>": 7457,
    "Quelle</w>": 7458,
    "rouge</w>": 7459,
    "Buckingham,</w>": 7460,
    "laissaient</w>": 7461,
    "poids</w>": 7462,
    "Milord,</w>": 7463,
    "c\u00f4": 7464,
    "autrefois</w>": 7465,
    "pr\u00e9c\u00e9": 7466,
    "bois,</w>": 7467,
    "choc</w>": 7468,
    "d\u00e9ton": 7469,
    "m'en</w>": 7470,
    "d'eau,</w>": 7471,
    "l'extr\u00e9mit\u00e9</w>": 7472,
    "l'Atlanti": 7473,
    "Lincoln,</w>": 7474,
    "om\u00e8t": 7475,
    "piro": 7476,
    "lac,</w>": 7477,
    "Mary</w>": 7478,
    "gradu": 7479,
    "born</w>": 7480,
    "neg": 7481,
    "resul": 7482,
    "bit</w>": 7483,
    "uring</w>": 7484,
    "somewhat</w>": 7485,
    "tall</w>": 7486,
    "support": 7487,
    "mentioned</w>": 7488,
    "bourn": 7489,
    "Lo": 7490,
    "ded": 7491,
    "e?\u201d</w>": 7492,
    "mill": 7493,
    "wait</w>": 7494,
    "lead</w>": 7495,
    "takes</w>": 7496,
    "terms</w>": 7497,
    "ject</w>": 7498,
    "ner,</w>": 7499,
    "gam": 7500,
    "naturally</w>": 7501,
    "sed.</w>": 7502,
    "abs": 7503,
    "watch": 7504,
    "stoo": 7505,
    "thank</w>": 7506,
    "strike</w>": 7507,
    "no,</w>": 7508,
    "stop</w>": 7509,
    "gover": 7510,
    "chose,</w>": 7511,
    "ize</w>": 7512,
    "sumed</w>": 7513,
    "bling</w>": 7514,
    "vent,</w>": 7515,
    "iling</w>": 7516,
    "dimin": 7517,
    "broke</w>": 7518,
    "spot</w>": 7519,
    "said.</w>": 7520,
    "yards</w>": 7521,
    "port,</w>": 7522,
    "seized</w>": 7523,
    "wretched</w>": 7524,
    "it!</w>": 7525,
    "beat</w>": 7526,
    "Tur": 7527,
    "part.</w>": 7528,
    "promon": 7529,
    "animal,</w>": 7530,
    "bles,</w>": 7531,
    "Indian</w>": 7532,
    "leap": 7533,
    "ard;</w>": 7534,
    "chanc": 7535,
    "brick</w>": 7536,
    "souvenir</w>": 7537,
    "escor": 7538,
    "chiff": 7539,
    "surveill": 7540,
    "nar": 7541,
    "canal</w>": 7542,
    "liqui": 7543,
    "jaun": 7544,
    "wine-sh": 7545,
    "\u00e9s": 7546,
    "francs</w>": 7547,
    "avr": 7548,
    "\u00e9galement</w>": 7549,
    "apparti": 7550,
    "recher": 7551,
    "pr\u00e8s,</w>": 7552,
    "compl\u00e8tement</w>": 7553,
    "rev\u00ea": 7554,
    "appelait</w>": 7555,
    "ajou": 7556,
    "armes,</w>": 7557,
    "aissaient</w>": 7558,
    "caract": 7559,
    "braves</w>": 7560,
    "retournant</w>": 7561,
    "jours.</w>": 7562,
    "juste</w>": 7563,
    "merveille": 7564,
    "descendre</w>": 7565,
    "preuve</w>": 7566,
    "t\u00eate.</w>": 7567,
    "soulev": 7568,
    "raconta</w>": 7569,
    "abord": 7570,
    "essaya</w>": 7571,
    "entr\u00e9e</w>": 7572,
    "pla": 7573,
    "int\u00e9ress": 7574,
    "avait,</w>": 7575,
    "appris</w>": 7576,
    "purent</w>": 7577,
    "Heu": 7578,
    "voiture</w>": 7579,
    "vaisseau</w>": 7580,
    "entes</w>": 7581,
    "Nouv": 7582,
    "r\u00e9pondis-je,</w>": 7583,
    "navire,</w>": 7584,
    "janvi": 7585,
    "troit</w>": 7586,
    "--Il</w>": 7587,
    "Edmond,</w>": 7588,
    "Fernand,</w>": 7589,
    "n'aurait</w>": 7590,
    "jusqu'aux</w>": 7591,
    "l'\u00eele.</w>": 7592,
    "Pacifique,</w>": 7593,
    "Land.</w>": 7594,
    "nageo": 7595,
    "p\u00f4le</w>": 7596,
    "difference</w>": 7597,
    "loved</w>": 7598,
    "relati": 7599,
    "vul": 7600,
    "ates,</w>": 7601,
    "ential</w>": 7602,
    "book</w>": 7603,
    "well-": 7604,
    "ison</w>": 7605,
    "als,</w>": 7606,
    "conc": 7607,
    "pac": 7608,
    "dear,</w>": 7609,
    "Bennet": 7610,
    "angu": 7611,
    "addi": 7612,
    "absence</w>": 7613,
    "throw</w>": 7614,
    "forg": 7615,
    "equally</w>": 7616,
    "upper</w>": 7617,
    "ford": 7618,
    "eyes.</w>": 7619,
    "Certain": 7620,
    "circumstance</w>": 7621,
    "beg</w>": 7622,
    "opening</w>": 7623,
    "eat</w>": 7624,
    "\u201cP": 7625,
    "probabil": 7626,
    "attention.</w>": 7627,
    "news</w>": 7628,
    "mine,</w>": 7629,
    "scre": 7630,
    "tone</w>": 7631,
    "pend</w>": 7632,
    "also,</w>": 7633,
    "red.</w>": 7634,
    "eful</w>": 7635,
    "reck": 7636,
    "oes</w>": 7637,
    "street</w>": 7638,
    "signific": 7639,
    "ile.</w>": 7640,
    "singular</w>": 7641,
    "eye": 7642,
    "etr": 7643,
    "uv": 7644,
    "quietly</w>": 7645,
    "Two</w>": 7646,
    "sole</w>": 7647,
    "Gardiner</w>": 7648,
    "prudent</w>": 7649,
    "hand.</w>": 7650,
    "lur": 7651,
    "wood</w>": 7652,
    "caused</w>": 7653,
    "ades,</w>": 7654,
    "vivi": 7655,
    "vall": 7656,
    "repos": 7657,
    "prop": 7658,
    "Ev": 7659,
    "OR": 7660,
    "pipe</w>": 7661,
    "Hor": 7662,
    "20</w>": 7663,
    "au.</w>": 7664,
    "zo": 7665,
    "surface,</w>": 7666,
    "lav": 7667,
    "Tab": 7668,
    "gues</w>": 7669,
    "che.</w>": 7670,
    "ministre</w>": 7671,
    "l'Uni": 7672,
    "n\u00e9cess": 7673,
    "t\u00e9s</w>": 7674,
    "situ\u00e9e</w>": 7675,
    "\u00e2mes</w>": 7676,
    "embrass": 7677,
    "ferm\u00e9</w>": 7678,
    "physion": 7679,
    "physionom": 7680,
    "v\u00ea": 7681,
    "D\u2019Artagnan,</w>": 7682,
    "\u00e9vanou": 7683,
    "Voyons,</w>": 7684,
    "envoy\u00e9</w>": 7685,
    "pouvais</w>": 7686,
    "g\u00e9ni": 7687,
    "chambre.</w>": 7688,
    "autre.</w>": 7689,
    "d\u2019ailleurs</w>": 7690,
    "meilleur</w>": 7691,
    "crois,</w>": 7692,
    "dois</w>": 7693,
    "a-t-elle</w>": 7694,
    "projet</w>": 7695,
    "envelopp": 7696,
    "mari</w>": 7697,
    "dit-elle,</w>": 7698,
    "lesquelles</w>": 7699,
    "encore.</w>": 7700,
    "co\u00fb": 7701,
    "d\u00e9fin": 7702,
    "trou</w>": 7703,
    "extr\u00eam": 7704,
    "chute</w>": 7705,
    "l'endroit</w>": 7706,
    "m\u00e9c": 7707,
    "braham-": 7708,
    "sud,</w>": 7709,
    "Spilett.</w>": 7710,
    "Bonadventure</w>": 7711,
    "Der": 7712,
    "John</w>": 7713,
    "Ad": 7714,
    "lit": 7715,
    "years,</w>": 7716,
    "Even</w>": 7717,
    "beauty</w>": 7718,
    "hav": 7719,
    "waited</w>": 7720,
    "mam": 7721,
    "advantage</w>": 7722,
    "admiration</w>": 7723,
    "behaviour</w>": 7724,
    "city</w>": 7725,
    "men.</w>": 7726,
    "altogether</w>": 7727,
    "_you": 7728,
    "fortune,</w>": 7729,
    "offer</w>": 7730,
    "grew</w>": 7731,
    "together.</w>": 7732,
    "grow</w>": 7733,
    "receive</w>": 7734,
    "desired</w>": 7735,
    "imagination</w>": 7736,
    "armed</w>": 7737,
    "enjoy": 7738,
    "forget</w>": 7739,
    "sure": 7740,
    "use,</w>": 7741,
    "gained</w>": 7742,
    "ordered</w>": 7743,
    "Sat": 7744,
    "said": 7745,
    "bore</w>": 7746,
    "plans</w>": 7747,
    "creatures</w>": 7748,
    "occurred</w>": 7749,
    "impatience</w>": 7750,
    "rang</w>": 7751,
    "endeavou": 7752,
    "haus": 7753,
    "dent,</w>": 7754,
    "sear": 7755,
    "ick,</w>": 7756,
    "formidable</w>": 7757,
    "days,</w>": 7758,
    "polic": 7759,
    "rise</w>": 7760,
    "investig": 7761,
    "reve": 7762,
    "question.</w>": 7763,
    "remembered</w>": 7764,
    "obe": 7765,
    "distance,</w>": 7766,
    "dant</w>": 7767,
    "Don\u2019t</w>": 7768,
    "ser</w>": 7769,
    "me:</w>": 7770,
    "\u2014\u201d</w>": 7771,
    "key</w>": 7772,
    "ky</w>": 7773,
    "rie": 7774,
    "ots</w>": 7775,
    "tail</w>": 7776,
    "il;</w>": 7777,
    "instruments</w>": 7778,
    "cles</w>": 7779,
    "dark": 7780,
    "dru": 7781,
    "modifi": 7782,
    "zar": 7783,
    "carpent": 7784,
    "ta,</w>": 7785,
    "theless,</w>": 7786,
    "Pip": 7787,
    "larges</w>": 7788,
    "amou": 7789,
    "Manette</w>": 7790,
    "atri": 7791,
    "Cruncher</w>": 7792,
    "Kurtz": 7793,
    "troupe</w>": 7794,
    "\u00e7ant</w>": 7795,
    "plac\u00e9</w>": 7796,
    "entendu": 7797,
    "retrouv": 7798,
    "inutile</w>": 7799,
    "atteint</w>": 7800,
    "devenait</w>": 7801,
    "bless\u00e9</w>": 7802,
    "s\u2019est</w>": 7803,
    "froid": 7804,
    "remettre</w>": 7805,
    "mains,</w>": 7806,
    "formaient</w>": 7807,
    "aupar": 7808,
    "dire.</w>": 7809,
    "d\u00e9sor": 7810,
    "tu\u00e9</w>": 7811,
    "repris</w>": 7812,
    "ancien</w>": 7813,
    "d\u00e9part</w>": 7814,
    "battre</w>": 7815,
    "retrouver</w>": 7816,
    "ux</w>": 7817,
    "rayon</w>": 7818,
    "toujours,</w>": 7819,
    "fauteu": 7820,
    "ait-il,</w>": 7821,
    "monter</w>": 7822,
    "forme.</w>": 7823,
    "nuit.</w>": 7824,
    "Toute</w>": 7825,
    "livre</w>": 7826,
    "soleil,</w>": 7827,
    "vieillard</w>": 7828,
    "fum\u00e9e</w>": 7829,
    "alim": 7830,
    "\u00e9car": 7831,
    "cadav": 7832,
    "Cun\u00e9gonde</w>": 7833,
    "extr\u00eamement</w>": 7834,
    "qu'elles</w>": 7835,
    "feux</w>": 7836,
    "fr\u00e9gate</w>": 7837,
    "loss</w>": 7838,
    "acted</w>": 7839,
    "appli": 7840,
    "mix": 7841,
    "woman,</w>": 7842,
    "fact,</w>": 7843,
    "materi": 7844,
    "bear": 7845,
    "this.</w>": 7846,
    "Philip": 7847,
    "Pember": 7848,
    "affection": 7849,
    "marr": 7850,
    "recomm": 7851,
    "reser": 7852,
    "Bingley\u2019s</w>": 7853,
    "imagine</w>": 7854,
    "ounced</w>": 7855,
    "me.\u201d</w>": 7856,
    "lose</w>": 7857,
    "strength</w>": 7858,
    "trade</w>": 7859,
    "when": 7860,
    "\u201cYour</w>": 7861,
    "y:</w>": 7862,
    "join</w>": 7863,
    "wrong": 7864,
    "ished,</w>": 7865,
    "nur": 7866,
    "hope,</w>": 7867,
    "However,</w>": 7868,
    "expos": 7869,
    "ian</w>": 7870,
    "opposite</w>": 7871,
    "chos": 7872,
    "desper": 7873,
    "completely</w>": 7874,
    "master</w>": 7875,
    "hing</w>": 7876,
    "lot": 7877,
    "parted</w>": 7878,
    "finally</w>": 7879,
    "gives</w>": 7880,
    "Anne</w>": 7881,
    "vered</w>": 7882,
    "ension</w>": 7883,
    "invent": 7884,
    "Our</w>": 7885,
    "istr": 7886,
    "ding": 7887,
    "fingers</w>": 7888,
    "Gener": 7889,
    "castle</w>": 7890,
    "Chris": 7891,
    "Thre": 7892,
    "RO": 7893,
    "wouldn\u2019t</w>": 7894,
    "content</w>": 7895,
    "des.</w>": 7896,
    "radi": 7897,
    "waters</w>": 7898,
    "perpen": 7899,
    "perpendicul": 7900,
    "ge.</w>": 7901,
    "ennu": 7902,
    "police</w>": 7903,
    "barque</w>": 7904,
    "grain</w>": 7905,
    "il?</w>": 7906,
    "spout": 7907,
    "massi": 7908,
    "leg</w>": 7909,
    "tain,</w>": 7910,
    "So,</w>": 7911,
    "archip": 7912,
    "fs,</w>": 7913,
    "mender</w>": 7914,
    "madame</w>": 7915,
    "porter": 7916,
    "id\u00e9es</w>": 7917,
    "M\u00e9dit": 7918,
    "M\u00e9diterran": 7919,
    "compagnie</w>": 7920,
    "euses,</w>": 7921,
    "heureusement</w>": 7922,
    "ant:</w>": 7923,
    "Majest\u00e9,</w>": 7924,
    "nomm\u00e9</w>": 7925,
    "dre.</w>": 7926,
    "reuses</w>": 7927,
    "ait;</w>": 7928,
    "pistoles</w>": 7929,
    "cherchait</w>": 7930,
    "d\u00e9p": 7931,
    "d\u00e9li": 7932,
    "resse,</w>": 7933,
    "Porthos.</w>": 7934,
    "s\u2019arr\u00eat": 7935,
    "yeux.</w>": 7936,
    "champ</w>": 7937,
    "douleur</w>": 7938,
    "dit-il.</w>": 7939,
    "haine</w>": 7940,
    "erez</w>": 7941,
    "mouchoir</w>": 7942,
    "essieurs,</w>": 7943,
    "soit,</w>": 7944,
    "chaleur</w>": 7945,
    "prix</w>": 7946,
    "salon</w>": 7947,
    "pieds.</w>": 7948,
    "moyens</w>": 7949,
    "couche</w>": 7950,
    "matelots</w>": 7951,
    "rivage</w>": 7952,
    "mademoiselle</w>": 7953,
    "Cacambo": 7954,
    "littoral</w>": 7955,
    "s'\u00e9coul": 7956,
    "l'\u00eelot</w>": 7957,
    "K</w>": 7958,
    "usually</w>": 7959,
    "suppose,</w>": 7960,
    "Collins,</w>": 7961,
    "conduct</w>": 7962,
    "tle</w>": 7963,
    "identi": 7964,
    "worse</w>": 7965,
    "stro": 7966,
    "picture</w>": 7967,
    "interesting</w>": 7968,
    "ceed</w>": 7969,
    "pride</w>": 7970,
    "consist": 7971,
    "8</w>": 7972,
    "Lizzy,</w>": 7973,
    "s--": 7974,
    "ignorant</w>": 7975,
    "sufficient</w>": 7976,
    "acquaintance</w>": 7977,
    "\u201cN": 7978,
    "se?</w>": 7979,
    "actually</w>": 7980,
    "distant</w>": 7981,
    "coat</w>": 7982,
    "London,</w>": 7983,
    "an;</w>": 7984,
    "bitter": 7985,
    "alone,</w>": 7986,
    "than": 7987,
    "private</w>": 7988,
    "chase</w>": 7989,
    "continually</w>": 7990,
    "Longbour": 7991,
    "Longbourn</w>": 7992,
    "me,\u201d</w>": 7993,
    "never": 7994,
    "ly;</w>": 7995,
    "begin</w>": 7996,
    "ety,</w>": 7997,
    "spare</w>": 7998,
    "comfort</w>": 7999
  },
  "merges": [
    [
      "e",
      "</w>"
    ],
    [
      "s",
      "</w>"
    ],
    [
      "t",
      "</w>"
    ],
    [
      ",",
      "</w>"
    ],
    [
      "e",
      "n"
    ],
    [
      "t",
      "h"
    ],
    [
      "a",
      "n"
    ],
    [
      "e",
      "r"
    ],
    [
      "i",
      "n"
    ],
    [
      "o",
      "n"
    ],
    [
      "o",
      "u"
    ],
    [
      "d",
      "</w>"
    ],
    [
      "a",
      "i"
    ],
    [
      "r",
      "e"
    ],
    [
      ".",
      "</w>"
    ],
    [
      "a",
      "</w>"
    ],
    [
      "a",
      "r"
    ],
    [
      "q",
      "u"
    ],
    [
      "e",
      "s</w>"
    ],
    [
      "o",
      "r"
    ],
    [
      "y",
      "</w>"
    ],
    [
      "th",
      "e</w>"
    ],
    [
      "d",
      "e</w>"
    ],
    [
      "i",
      "l"
    ],
    [
      "e",
      "s"
    ],
    [
      "l",
      "e</w>"
    ],
    [
      "o",
      "</w>"
    ],
    [
      "er",
      "</w>"
    ],
    [
      "a",
      "l"
    ],
    [
      "u",
      "r"
    ],
    [
      "u",
      "n"
    ],
    [
      "f",
      "</w>"
    ],
    [
      "o",
      "m"
    ],
    [
      "c",
      "h"
    ],
    [
      "on",
      "</w>"
    ],
    [
      "e",
      "l"
    ],
    [
      "t",
      "i"
    ],
    [
      "in",
      "g"
    ],
    [
      "an",
      "d</w>"
    ],
    [
      "e",
      "d</w>"
    ],
    [
      "e",
      ",</w>"
    ],
    [
      "t",
      "r"
    ],
    [
      "i",
      "s"
    ],
    [
      "i",
      "s</w>"
    ],
    [
      "e",
      "t</w>"
    ],
    [
      "ai",
      "t</w>"
    ],
    [
      "o",
      "f</w>"
    ],
    [
      "en",
      "t</w>"
    ],
    [
      "a",
      "v"
    ],
    [
      "i",
      "t"
    ],
    [
      "a",
      "s</w>"
    ],
    [
      "en",
      "</w>"
    ],
    [
      "a",
      "u"
    ],
    [
      "e",
      "m"
    ],
    [
      "t",
      "o</w>"
    ],
    [
      "a",
      "t</w>"
    ],
    [
      "l",
      "a</w>"
    ],
    [
      "ing",
      "</w>"
    ],
    [
      "i",
      "</w>"
    ],
    [
      "\u00e0",
      "</w>"
    ],
    [
      "in",
      "</w>"
    ],
    [
      "a",
      "s"
    ],
    [
      "p",
      "r"
    ],
    [
      "i",
      "t</w>"
    ],
    [
      "ou",
      "r"
    ],
    [
      "s",
      ",</w>"
    ],
    [
      "a",
      "t"
    ],
    [
      "i",
      "r"
    ],
    [
      ";",
      "</w>"
    ],
    [
      "l",
      "e"
    ],
    [
      "e",
      "u"
    ],
    [
      "m",
      "e</w>"
    ],
    [
      "c",
      "e</w>"
    ],
    [
      "w",
      "h"
    ],
    [
      "l",
      "</w>"
    ],
    [
      "ou",
      "s</w>"
    ],
    [
      "t",
      ",</w>"
    ],
    [
      "qu",
      "e</w>"
    ],
    [
      "l",
      "es</w>"
    ],
    [
      "I",
      "</w>"
    ],
    [
      "o",
      "w"
    ],
    [
      "a",
      "g"
    ],
    [
      "a",
      "b"
    ],
    [
      "il",
      "</w>"
    ],
    [
      "l",
      "i"
    ],
    [
      "s",
      "e</w>"
    ],
    [
      "h",
      "e</w>"
    ],
    [
      "r",
      "i"
    ],
    [
      "s",
      "i"
    ],
    [
      "l",
      "u"
    ],
    [
      "c",
      "on"
    ],
    [
      "f",
      "or"
    ],
    [
      "p",
      "ar"
    ],
    [
      "s",
      "t"
    ],
    [
      "a",
      "m"
    ],
    [
      "un",
      "</w>"
    ],
    [
      "a",
      "c"
    ],
    [
      "s",
      "e"
    ],
    [
      "t",
      "e</w>"
    ],
    [
      "a",
      "p"
    ],
    [
      "\u00e9",
      "t"
    ],
    [
      "\u00e9",
      "</w>"
    ],
    [
      "e",
      "t"
    ],
    [
      "en",
      "t"
    ],
    [
      "l",
      "'"
    ],
    [
      "c",
      "om"
    ],
    [
      "d",
      "u"
    ],
    [
      "ur",
      "</w>"
    ],
    [
      "th",
      "at</w>"
    ],
    [
      "an",
      "t</w>"
    ],
    [
      "o",
      "l"
    ],
    [
      "g",
      "h"
    ],
    [
      "s",
      "u"
    ],
    [
      "i",
      "m"
    ],
    [
      "th",
      "</w>"
    ],
    [
      "d",
      "e"
    ],
    [
      "un",
      "e</w>"
    ],
    [
      "n",
      "o"
    ],
    [
      "n",
      "e</w>"
    ],
    [
      "w",
      "as</w>"
    ],
    [
      "d",
      "i"
    ],
    [
      "v",
      "er"
    ],
    [
      "x",
      "</w>"
    ],
    [
      "r",
      "o"
    ],
    [
      "p",
      "o"
    ],
    [
      "an",
      "</w>"
    ],
    [
      "a",
      "in"
    ],
    [
      "our",
      "</w>"
    ],
    [
      "h",
      "is</w>"
    ],
    [
      "an",
      "s</w>"
    ],
    [
      "w",
      "i"
    ],
    [
      "b",
      "e"
    ],
    [
      "r",
      "e</w>"
    ],
    [
      "u",
      "t</w>"
    ],
    [
      "l",
      "y</w>"
    ],
    [
      "a",
      "d"
    ],
    [
      "!",
      "</w>"
    ],
    [
      "tr",
      "e</w>"
    ],
    [
      "d",
      "es</w>"
    ],
    [
      "m",
      "o"
    ],
    [
      "u",
      "s"
    ],
    [
      "d",
      ",</w>"
    ],
    [
      "qu",
      "i</w>"
    ],
    [
      "e",
      ".</w>"
    ],
    [
      "e",
      "c"
    ],
    [
      "ou",
      "</w>"
    ],
    [
      "a",
      "d</w>"
    ],
    [
      "a",
      "ti"
    ],
    [
      "du",
      "</w>"
    ],
    [
      "ai",
      "s</w>"
    ],
    [
      "l",
      "o"
    ],
    [
      "en",
      "d"
    ],
    [
      "es",
      ",</w>"
    ],
    [
      "n",
      "</w>"
    ],
    [
      "ch",
      "</w>"
    ],
    [
      "\u201d",
      "</w>"
    ],
    [
      "-",
      "-"
    ],
    [
      "er",
      "e</w>"
    ],
    [
      "r",
      "\u00e9"
    ],
    [
      "es",
      "t</w>"
    ],
    [
      "ou",
      "l"
    ],
    [
      "s",
      "h"
    ],
    [
      "wi",
      "th</w>"
    ],
    [
      "t",
      "er"
    ],
    [
      "d",
      "'"
    ],
    [
      "au",
      "</w>"
    ],
    [
      "e",
      "x"
    ],
    [
      "v",
      "ous</w>"
    ],
    [
      "f",
      "f"
    ],
    [
      "ir",
      "</w>"
    ],
    [
      "ou",
      "t</w>"
    ],
    [
      "d",
      "\u00e9"
    ],
    [
      "d",
      "ans</w>"
    ],
    [
      "k",
      "</w>"
    ],
    [
      "ai",
      "ent</w>"
    ],
    [
      "re",
      "s"
    ],
    [
      "on",
      "s</w>"
    ],
    [
      "h",
      "ad</w>"
    ],
    [
      "i",
      "c"
    ],
    [
      "v",
      "o"
    ],
    [
      "pr",
      "o"
    ],
    [
      "j",
      "e</w>"
    ],
    [
      "d",
      "on"
    ],
    [
      "re",
      ",</w>"
    ],
    [
      "p",
      "l"
    ],
    [
      "f",
      "r"
    ],
    [
      "no",
      "t</w>"
    ],
    [
      "h",
      "e"
    ],
    [
      "p",
      "as</w>"
    ],
    [
      "an",
      "t"
    ],
    [
      "\u00e9t",
      "ait</w>"
    ],
    [
      "for",
      "</w>"
    ],
    [
      "s",
      ".</w>"
    ],
    [
      "av",
      "e</w>"
    ],
    [
      "p",
      "er"
    ],
    [
      "y",
      ",</w>"
    ],
    [
      "m",
      "y</w>"
    ],
    [
      "oul",
      "d</w>"
    ],
    [
      "e",
      "v"
    ],
    [
      "s",
      "on</w>"
    ],
    [
      "al",
      "l</w>"
    ],
    [
      "d",
      "it</w>"
    ],
    [
      "b",
      "e</w>"
    ],
    [
      "ou",
      "v"
    ],
    [
      "d",
      "\u2019"
    ],
    [
      "om",
      "</w>"
    ],
    [
      "en",
      "c"
    ],
    [
      "?",
      "</w>"
    ],
    [
      "o",
      "p"
    ],
    [
      "h",
      "im"
    ],
    [
      "y",
      "ou</w>"
    ],
    [
      "e",
      "z"
    ],
    [
      "p",
      "lu"
    ],
    [
      "u",
      "p"
    ],
    [
      "g",
      "r"
    ],
    [
      "th",
      "e"
    ],
    [
      "em",
      "ent</w>"
    ],
    [
      "qu",
      "'"
    ],
    [
      "v",
      "i"
    ],
    [
      "al",
      "</w>"
    ],
    [
      "s",
      "o"
    ],
    [
      "ow",
      "</w>"
    ],
    [
      "on",
      ",</w>"
    ],
    [
      "s",
      "er"
    ],
    [
      "s",
      "ur</w>"
    ],
    [
      "or",
      "</w>"
    ],
    [
      "an",
      "d"
    ],
    [
      "h",
      "er</w>"
    ],
    [
      "m",
      "a"
    ],
    [
      "m",
      "on"
    ],
    [
      "ou",
      "n"
    ],
    [
      "ai",
      "s"
    ],
    [
      "eu",
      "x</w>"
    ],
    [
      "e",
      "ur"
    ],
    [
      "m",
      "i"
    ],
    [
      "on",
      "g"
    ],
    [
      "p",
      "our</w>"
    ],
    [
      "er",
      ",</w>"
    ],
    [
      "re",
      "s</w>"
    ],
    [
      "h",
      "ave</w>"
    ],
    [
      "d",
      "is"
    ],
    [
      "av",
      "ait</w>"
    ],
    [
      "s",
      "'"
    ],
    [
      "et",
      "te</w>"
    ],
    [
      "s",
      "ai"
    ],
    [
      "el",
      "le</w>"
    ],
    [
      "an",
      "g"
    ],
    [
      "ar",
      "d"
    ],
    [
      "\u2014",
      "</w>"
    ],
    [
      "b",
      "ut</w>"
    ],
    [
      "u",
      "l"
    ],
    [
      "t",
      "er</w>"
    ],
    [
      "a",
      "y"
    ],
    [
      "l",
      "\u2019"
    ],
    [
      "p",
      "or"
    ],
    [
      "t",
      "en"
    ],
    [
      "al",
      "l"
    ],
    [
      "b",
      "y</w>"
    ],
    [
      "gh",
      "t</w>"
    ],
    [
      "as",
      "s"
    ],
    [
      "\u2019",
      "s</w>"
    ],
    [
      "ar",
      "</w>"
    ],
    [
      "\u00e9",
      "c"
    ],
    [
      "o",
      "o"
    ],
    [
      "par",
      "</w>"
    ],
    [
      "plu",
      "s</w>"
    ],
    [
      "p",
      "e"
    ],
    [
      "b",
      "i"
    ],
    [
      "b",
      "l"
    ],
    [
      "n",
      "i"
    ],
    [
      "s",
      "i</w>"
    ],
    [
      "il",
      "l"
    ],
    [
      "s",
      "om"
    ],
    [
      "t",
      "-"
    ],
    [
      "wh",
      "i"
    ],
    [
      "b",
      "r"
    ],
    [
      "s",
      "es</w>"
    ],
    [
      "c",
      "ette</w>"
    ],
    [
      "p",
      "u"
    ],
    [
      "e",
      "d"
    ],
    [
      "an",
      "c"
    ],
    [
      "n",
      "ous</w>"
    ],
    [
      "fr",
      "om</w>"
    ],
    [
      "i",
      ",</w>"
    ],
    [
      "th",
      "er</w>"
    ],
    [
      "s",
      "a</w>"
    ],
    [
      "i",
      "v"
    ],
    [
      "m",
      "an"
    ],
    [
      "n",
      "e"
    ],
    [
      "n",
      "'"
    ],
    [
      "whi",
      "ch</w>"
    ],
    [
      "m",
      "ar"
    ],
    [
      ":",
      "</w>"
    ],
    [
      "s",
      "t</w>"
    ],
    [
      "s",
      "el"
    ],
    [
      "ez",
      "</w>"
    ],
    [
      "qu",
      "el"
    ],
    [
      "ag",
      "n"
    ],
    [
      "th",
      "is</w>"
    ],
    [
      "qu",
      "\u2019"
    ],
    [
      "ou",
      "s"
    ],
    [
      "k",
      "e</w>"
    ],
    [
      "\u00e8",
      "s</w>"
    ],
    [
      "e",
      "p"
    ],
    [
      "--",
      "</w>"
    ],
    [
      "on",
      "e</w>"
    ],
    [
      "f",
      "i"
    ],
    [
      "s",
      "he</w>"
    ],
    [
      "ec",
      "</w>"
    ],
    [
      "t",
      "u"
    ],
    [
      "en",
      "t,</w>"
    ],
    [
      "m",
      "or"
    ],
    [
      "av",
      "ec</w>"
    ],
    [
      "s",
      "o</w>"
    ],
    [
      "b",
      "o"
    ],
    [
      "w",
      "ere</w>"
    ],
    [
      "ti",
      "on</w>"
    ],
    [
      "il",
      "l</w>"
    ],
    [
      "el",
      "l"
    ],
    [
      "ou",
      "t"
    ],
    [
      "A",
      "r"
    ],
    [
      "e",
      "ur</w>"
    ],
    [
      "ab",
      "le</w>"
    ],
    [
      "\u00e9",
      "e</w>"
    ],
    [
      "ur",
      "e</w>"
    ],
    [
      "au",
      "t"
    ],
    [
      "a",
      "y</w>"
    ],
    [
      "ati",
      "on</w>"
    ],
    [
      "m",
      "ais</w>"
    ],
    [
      "ver",
      "y</w>"
    ],
    [
      "c",
      "i"
    ],
    [
      "au",
      "x</w>"
    ],
    [
      "lu",
      "i</w>"
    ],
    [
      "c",
      "es</w>"
    ],
    [
      "f",
      "ai"
    ],
    [
      "ou",
      "gh"
    ],
    [
      "t",
      "ed</w>"
    ],
    [
      "T",
      "he</w>"
    ],
    [
      "ai",
      "</w>"
    ],
    [
      "m",
      "es</w>"
    ],
    [
      "m",
      "ent</w>"
    ],
    [
      "s",
      "tr"
    ],
    [
      "com",
      "me</w>"
    ],
    [
      "s",
      "p"
    ],
    [
      "c",
      "o"
    ],
    [
      "v",
      "en"
    ],
    [
      "a",
      "w"
    ],
    [
      "m",
      "in"
    ],
    [
      "f",
      "o"
    ],
    [
      "em",
      "p"
    ],
    [
      "p",
      "on"
    ],
    [
      "m",
      "e"
    ],
    [
      "o",
      "b"
    ],
    [
      "es",
      ".</w>"
    ],
    [
      "th",
      "er"
    ],
    [
      "t",
      "s</w>"
    ],
    [
      "h",
      "om"
    ],
    [
      "t",
      "a"
    ],
    [
      "d",
      "er"
    ],
    [
      ",",
      "\u201d</w>"
    ],
    [
      "I",
      "l</w>"
    ],
    [
      "r",
      "u"
    ],
    [
      "M",
      "r"
    ],
    [
      "g",
      "n"
    ],
    [
      "is",
      ",</w>"
    ],
    [
      "eu",
      "</w>"
    ],
    [
      "es",
      "s</w>"
    ],
    [
      "en",
      ",</w>"
    ],
    [
      "ap",
      "p"
    ],
    [
      "d",
      "es"
    ],
    [
      "com",
      "p"
    ],
    [
      "ow",
      "n</w>"
    ],
    [
      "\u00e9",
      "r"
    ],
    [
      "t",
      "out</w>"
    ],
    [
      "th",
      "o"
    ],
    [
      "ar",
      "e</w>"
    ],
    [
      "d",
      "em"
    ],
    [
      "il",
      "s</w>"
    ],
    [
      "t",
      "o"
    ],
    [
      "po",
      "s"
    ],
    [
      "him",
      "</w>"
    ],
    [
      "sai",
      "d</w>"
    ],
    [
      "be",
      "en</w>"
    ],
    [
      "er",
      "s</w>"
    ],
    [
      "v",
      "e</w>"
    ],
    [
      "t",
      ".</w>"
    ],
    [
      "the",
      "y</w>"
    ],
    [
      "m",
      "il"
    ],
    [
      "an",
      "ce</w>"
    ],
    [
      "c",
      "ou"
    ],
    [
      "ir",
      "e</w>"
    ],
    [
      "c",
      "</w>"
    ],
    [
      "L",
      "e</w>"
    ],
    [
      "it",
      "t"
    ],
    [
      "e",
      "d,</w>"
    ],
    [
      "m",
      "e,</w>"
    ],
    [
      "\u00e9",
      "s</w>"
    ],
    [
      "p",
      "re"
    ],
    [
      "f",
      "e"
    ],
    [
      "\u00e8",
      "re</w>"
    ],
    [
      "m",
      "\u00ea"
    ],
    [
      "e",
      "t,</w>"
    ],
    [
      "re",
      ".</w>"
    ],
    [
      "d",
      "o"
    ],
    [
      "n",
      "o</w>"
    ],
    [
      "p",
      "i"
    ],
    [
      "ai",
      "r"
    ],
    [
      "T",
      "h"
    ],
    [
      "w",
      "ould</w>"
    ],
    [
      "c",
      "ap"
    ],
    [
      "k",
      "n"
    ],
    [
      "w",
      "or"
    ],
    [
      "n",
      "\u2019"
    ],
    [
      "\u00e9",
      ",</w>"
    ],
    [
      "W",
      "h"
    ],
    [
      "p",
      "res"
    ],
    [
      "e",
      ";</w>"
    ],
    [
      "t",
      "agn"
    ],
    [
      "th",
      "em"
    ],
    [
      "a",
      "me</w>"
    ],
    [
      ".",
      "\u201d</w>"
    ],
    [
      "r\u00e9",
      "pon"
    ],
    [
      "s",
      "\u2019"
    ],
    [
      "wh",
      "en</w>"
    ],
    [
      "t",
      "ou"
    ],
    [
      "g",
      "u"
    ],
    [
      "Mr",
      ".</w>"
    ],
    [
      "d",
      "eux</w>"
    ],
    [
      "h",
      "</w>"
    ],
    [
      "is",
      "s"
    ],
    [
      "c",
      "r"
    ],
    [
      "l",
      "ong"
    ],
    [
      "j",
      "our"
    ],
    [
      "ag",
      "e</w>"
    ],
    [
      "the",
      "ir</w>"
    ],
    [
      "en",
      "ce</w>"
    ],
    [
      "ough",
      "</w>"
    ],
    [
      "m",
      "on</w>"
    ],
    [
      "Ar",
      "tagn"
    ],
    [
      "it",
      "e</w>"
    ],
    [
      "an",
      "t,</w>"
    ],
    [
      "on",
      ".</w>"
    ],
    [
      "re",
      "d</w>"
    ],
    [
      "c",
      "our"
    ],
    [
      "u",
      "</w>"
    ],
    [
      "ev",
      "er</w>"
    ],
    [
      "u",
      "m"
    ],
    [
      "lo",
      "o"
    ],
    [
      "u",
      "t"
    ],
    [
      "ai",
      "l"
    ],
    [
      "c",
      "k"
    ],
    [
      "Q",
      "u"
    ],
    [
      "b",
      "le</w>"
    ],
    [
      "\u00ea",
      "tre</w>"
    ],
    [
      "por",
      "t"
    ],
    [
      "c",
      "or"
    ],
    [
      "c",
      "ol"
    ],
    [
      "it",
      ",</w>"
    ],
    [
      "c",
      "el"
    ],
    [
      "p",
      "ass"
    ],
    [
      "\u00ea",
      "t"
    ],
    [
      "s",
      "on"
    ],
    [
      "ar",
      "d</w>"
    ],
    [
      "in",
      "e</w>"
    ],
    [
      "th",
      "ing</w>"
    ],
    [
      "ar",
      "g"
    ],
    [
      "c",
      "ould</w>"
    ],
    [
      "r",
      "ent</w>"
    ],
    [
      "po",
      "in"
    ],
    [
      "g",
      "l"
    ],
    [
      "qu'",
      "il</w>"
    ],
    [
      "h",
      "er"
    ],
    [
      "wh",
      "at</w>"
    ],
    [
      "ar",
      "b"
    ],
    [
      "g",
      "re"
    ],
    [
      "o",
      "c"
    ],
    [
      "con",
      "t"
    ],
    [
      "a",
      "f"
    ],
    [
      "us",
      "t</w>"
    ],
    [
      "som",
      "e</w>"
    ],
    [
      "J",
      "e</w>"
    ],
    [
      "v",
      "er</w>"
    ],
    [
      "y",
      "our</w>"
    ],
    [
      "s",
      "ans</w>"
    ],
    [
      "i",
      "f</w>"
    ],
    [
      "p",
      "</w>"
    ],
    [
      "es",
      "s"
    ],
    [
      "bi",
      "en</w>"
    ],
    [
      "I",
      "t</w>"
    ],
    [
      "p",
      "as"
    ],
    [
      "c",
      "l"
    ],
    [
      "ent",
      "s</w>"
    ],
    [
      "f",
      "a"
    ],
    [
      "up",
      "on</w>"
    ],
    [
      "in",
      "to</w>"
    ],
    [
      "re",
      "m"
    ],
    [
      "de",
      "v"
    ],
    [
      "le",
      "ur</w>"
    ],
    [
      "A",
      "n"
    ],
    [
      "H",
      "e</w>"
    ],
    [
      "w",
      "ill</w>"
    ],
    [
      "t",
      "emp"
    ],
    [
      "f",
      "u"
    ],
    [
      "th",
      "ere</w>"
    ],
    [
      "y",
      ".</w>"
    ],
    [
      "ar",
      "ri"
    ],
    [
      "con",
      "n"
    ],
    [
      "it",
      "s</w>"
    ],
    [
      "tr",
      "o"
    ],
    [
      "re",
      "t"
    ],
    [
      "eur",
      ",</w>"
    ],
    [
      "c",
      "er"
    ],
    [
      "ing",
      ",</w>"
    ],
    [
      "e",
      "-"
    ],
    [
      "com",
      "m"
    ],
    [
      "k",
      "ing</w>"
    ],
    [
      "w",
      "</w>"
    ],
    [
      "k",
      "ed</w>"
    ],
    [
      "B",
      "ut</w>"
    ],
    [
      "qu",
      "es</w>"
    ],
    [
      "d",
      "ou"
    ],
    [
      "c",
      "e"
    ],
    [
      "m",
      "u"
    ],
    [
      "d\u2019",
      "Artagn"
    ],
    [
      "_",
      "</w>"
    ],
    [
      "wh",
      "o</w>"
    ],
    [
      "\u00e8",
      "rent</w>"
    ],
    [
      "ab",
      "l"
    ],
    [
      "s",
      "or"
    ],
    [
      "a",
      "ch"
    ],
    [
      "\u00bb",
      "</w>"
    ],
    [
      "h",
      "eu"
    ],
    [
      "pr",
      "\u00e8s</w>"
    ],
    [
      "am",
      "</w>"
    ],
    [
      "w",
      "e</w>"
    ],
    [
      "s",
      "ur"
    ],
    [
      "f",
      "ut</w>"
    ],
    [
      "mor",
      "e</w>"
    ],
    [
      "f",
      "in"
    ],
    [
      "c",
      "re"
    ],
    [
      "le",
      "ur"
    ],
    [
      "\u00fb",
      "t</w>"
    ],
    [
      "x",
      ",</w>"
    ],
    [
      "z",
      "</w>"
    ],
    [
      "par",
      "ti"
    ],
    [
      "l",
      "itt"
    ],
    [
      "up",
      "</w>"
    ],
    [
      "r",
      "en"
    ],
    [
      "oun",
      "d</w>"
    ],
    [
      "at",
      "e</w>"
    ],
    [
      "\u00e9",
      "ri"
    ],
    [
      "g",
      "o"
    ],
    [
      "re",
      "s,</w>"
    ],
    [
      "w",
      "e"
    ],
    [
      "re",
      "g"
    ],
    [
      "ser",
      "v"
    ],
    [
      "el",
      "</w>"
    ],
    [
      "at",
      "t"
    ],
    [
      "don",
      "t</w>"
    ],
    [
      "on",
      "n"
    ],
    [
      "ain",
      "e</w>"
    ],
    [
      "h",
      "ab"
    ],
    [
      "m\u00ea",
      "me</w>"
    ],
    [
      "en",
      "ti"
    ],
    [
      "li",
      "ke</w>"
    ],
    [
      "r\u00e9pon",
      "dit</w>"
    ],
    [
      "pr",
      "is"
    ],
    [
      "M",
      "ais</w>"
    ],
    [
      "il",
      "e</w>"
    ],
    [
      "ol",
      "d</w>"
    ],
    [
      "as",
      "t</w>"
    ],
    [
      "ar",
      "m"
    ],
    [
      "\u00f9",
      "</w>"
    ],
    [
      "\u201c",
      "I</w>"
    ],
    [
      "pr",
      "\u00e9"
    ],
    [
      "sel",
      "f</w>"
    ],
    [
      "c",
      "an"
    ],
    [
      "f",
      "er"
    ],
    [
      "m",
      "om"
    ],
    [
      "s",
      ";</w>"
    ],
    [
      "d",
      "r"
    ],
    [
      "o",
      "ther</w>"
    ],
    [
      "don",
      "c</w>"
    ],
    [
      "\u00e9t",
      "\u00e9</w>"
    ],
    [
      "f",
      "l"
    ],
    [
      "th",
      "an</w>"
    ],
    [
      "d",
      "it"
    ],
    [
      "don",
      "n"
    ],
    [
      "ais",
      "s"
    ],
    [
      "c",
      "u"
    ],
    [
      "a",
      "in</w>"
    ],
    [
      "t",
      "t"
    ],
    [
      "ar",
      "r"
    ],
    [
      "mo",
      "st</w>"
    ],
    [
      "t",
      "w"
    ],
    [
      "f",
      "on"
    ],
    [
      "v",
      "ou"
    ],
    [
      "au",
      "s"
    ],
    [
      "an",
      "y</w>"
    ],
    [
      "c",
      "ri"
    ],
    [
      "o",
      "\u00f9</w>"
    ],
    [
      "mon",
      "si"
    ],
    [
      "c",
      "as"
    ],
    [
      "or",
      "s</w>"
    ],
    [
      "s",
      "ou"
    ],
    [
      "or",
      "e</w>"
    ],
    [
      "L",
      "a</w>"
    ],
    [
      "a",
      ",</w>"
    ],
    [
      "end",
      "ant</w>"
    ],
    [
      "qu\u2019",
      "il</w>"
    ],
    [
      "av",
      "o"
    ],
    [
      "on",
      "s,</w>"
    ],
    [
      "is",
      "t"
    ],
    [
      "ch",
      "o"
    ],
    [
      "le",
      ".</w>"
    ],
    [
      "er",
      ".</w>"
    ],
    [
      "e",
      "ar"
    ],
    [
      "i",
      "p"
    ],
    [
      "litt",
      "le</w>"
    ],
    [
      "u",
      "s</w>"
    ],
    [
      "s",
      "eu"
    ],
    [
      "v",
      "is"
    ],
    [
      "or",
      "d"
    ],
    [
      "su",
      "ch</w>"
    ],
    [
      "c",
      "ro"
    ],
    [
      "el",
      "l</w>"
    ],
    [
      "vo",
      "y"
    ],
    [
      "in",
      "st"
    ],
    [
      "d'",
      "un</w>"
    ],
    [
      "oo",
      "d</w>"
    ],
    [
      "m",
      "at"
    ],
    [
      "in",
      "s</w>"
    ],
    [
      "an",
      ",</w>"
    ],
    [
      "for",
      "e</w>"
    ],
    [
      "cap",
      "it"
    ],
    [
      "al",
      "ly</w>"
    ],
    [
      "es",
      "t"
    ],
    [
      "ur",
      "n"
    ],
    [
      "f",
      "ac"
    ],
    [
      "tr",
      "i"
    ],
    [
      "for",
      "m"
    ],
    [
      "g",
      "e"
    ],
    [
      "in",
      "ter"
    ],
    [
      "\u00e9t",
      "aient</w>"
    ],
    [
      "p",
      "ouv"
    ],
    [
      "g",
      "</w>"
    ],
    [
      "f",
      "ait</w>"
    ],
    [
      "c",
      "'"
    ],
    [
      "e",
      "y"
    ],
    [
      "E",
      "t</w>"
    ],
    [
      "y",
      "ou"
    ],
    [
      "re",
      "st"
    ],
    [
      "em",
      "b"
    ],
    [
      "tr",
      "ouv"
    ],
    [
      "m",
      "an</w>"
    ],
    [
      "wi",
      "th"
    ],
    [
      "h",
      "i"
    ],
    [
      "wh",
      "al"
    ],
    [
      "h",
      "!</w>"
    ],
    [
      "i",
      "gn"
    ],
    [
      "\u2019",
      "</w>"
    ],
    [
      "p",
      "en"
    ],
    [
      "in",
      "d"
    ],
    [
      "on",
      "ly</w>"
    ],
    [
      "n",
      "ow</w>"
    ],
    [
      "enc",
      "ro"
    ],
    [
      "an",
      "d,</w>"
    ],
    [
      "il",
      ",</w>"
    ],
    [
      "P",
      "encro"
    ],
    [
      "d",
      "o</w>"
    ],
    [
      "p",
      "eu"
    ],
    [
      "h",
      "as</w>"
    ],
    [
      "e",
      "ff"
    ],
    [
      "f",
      "ir"
    ],
    [
      "el",
      "y</w>"
    ],
    [
      "ai",
      "s,</w>"
    ],
    [
      "ec",
      "t"
    ],
    [
      "ent",
      ".</w>"
    ],
    [
      "\u00e9",
      "es</w>"
    ],
    [
      "pr",
      "it</w>"
    ],
    [
      "ad",
      "y</w>"
    ],
    [
      "qu",
      "e,</w>"
    ],
    [
      "e",
      "au</w>"
    ],
    [
      "c",
      "ur"
    ],
    [
      "hom",
      "me</w>"
    ],
    [
      "p",
      "h"
    ],
    [
      "\u00e9",
      "n"
    ],
    [
      "C",
      "y"
    ],
    [
      "in",
      "t"
    ],
    [
      "L",
      "es</w>"
    ],
    [
      "et",
      "t"
    ],
    [
      "m",
      "is"
    ],
    [
      "an",
      "ch"
    ],
    [
      "s",
      "ous</w>"
    ],
    [
      "avo",
      "ir</w>"
    ],
    [
      "them",
      "</w>"
    ],
    [
      "il",
      "le</w>"
    ],
    [
      "s",
      "it"
    ],
    [
      "es",
      "e</w>"
    ],
    [
      "j",
      "us"
    ],
    [
      "d",
      ".</w>"
    ],
    [
      "d",
      "er</w>"
    ],
    [
      "se",
      "em"
    ],
    [
      "sh",
      "ould</w>"
    ],
    [
      "m",
      "ust</w>"
    ],
    [
      "a",
      "ff"
    ],
    [
      "in",
      ",</w>"
    ],
    [
      "Cy",
      "ru"
    ],
    [
      "tr",
      "av"
    ],
    [
      "j",
      "e"
    ],
    [
      "m",
      "ain"
    ],
    [
      "o",
      "f"
    ],
    [
      "a",
      "ur"
    ],
    [
      "!",
      "\u201d</w>"
    ],
    [
      "An",
      "d</w>"
    ],
    [
      "th",
      ",</w>"
    ],
    [
      "s",
      "em"
    ],
    [
      "k",
      ",</w>"
    ],
    [
      "is",
      "h"
    ],
    [
      "i",
      "d"
    ],
    [
      "dem",
      "and"
    ],
    [
      "be",
      "fore</w>"
    ],
    [
      "di",
      "d</w>"
    ],
    [
      "a",
      "le</w>"
    ],
    [
      "poin",
      "t</w>"
    ],
    [
      "ol",
      "l"
    ],
    [
      "n",
      "at"
    ],
    [
      "enc",
      "ore</w>"
    ],
    [
      "fai",
      "re</w>"
    ],
    [
      "o",
      "ff"
    ],
    [
      "O",
      "n</w>"
    ],
    [
      "si",
      "on</w>"
    ],
    [
      "M",
      ".</w>"
    ],
    [
      "a",
      "\u00ee"
    ],
    [
      "?",
      "\u201d</w>"
    ],
    [
      "h",
      "u"
    ],
    [
      "el",
      "i"
    ],
    [
      "d'",
      "une</w>"
    ],
    [
      "j",
      "o"
    ],
    [
      "om",
      "b"
    ],
    [
      "end",
      "re</w>"
    ],
    [
      "su",
      "p"
    ],
    [
      "o",
      "ver</w>"
    ],
    [
      "re",
      "c"
    ],
    [
      "f",
      "it</w>"
    ],
    [
      "ou",
      "ght</w>"
    ],
    [
      "ow",
      ",</w>"
    ],
    [
      "d",
      "own</w>"
    ],
    [
      "th",
      "in"
    ],
    [
      "c",
      "in"
    ],
    [
      "ed",
      ".</w>"
    ],
    [
      "re",
      "l"
    ],
    [
      "th",
      "en</w>"
    ],
    [
      "a",
      "y,</w>"
    ],
    [
      "air",
      "</w>"
    ],
    [
      "mu",
      "ch</w>"
    ],
    [
      "a",
      "ce</w>"
    ],
    [
      "sel",
      "f"
    ],
    [
      "u",
      "e</w>"
    ],
    [
      "ver",
      "s</w>"
    ],
    [
      "th",
      "r"
    ],
    [
      "ay",
      "s</w>"
    ],
    [
      "pu",
      "is</w>"
    ],
    [
      "t",
      "ain"
    ],
    [
      "ag",
      "ain"
    ],
    [
      "at",
      "ed</w>"
    ],
    [
      "ab",
      "out</w>"
    ],
    [
      "on",
      "t</w>"
    ],
    [
      "g",
      "i"
    ],
    [
      "ti",
      "ons</w>"
    ],
    [
      "S",
      "mi"
    ],
    [
      "E",
      "n</w>"
    ],
    [
      "th",
      "ese</w>"
    ],
    [
      "it",
      "\u00e9</w>"
    ],
    [
      "it",
      ".</w>"
    ],
    [
      "tro",
      "is</w>"
    ],
    [
      "p",
      "eu</w>"
    ],
    [
      "A",
      "tho"
    ],
    [
      "\u00e9c",
      "ri"
    ],
    [
      "quel",
      "ques</w>"
    ],
    [
      "som",
      "e"
    ],
    [
      "c",
      "an</w>"
    ],
    [
      "m",
      "er"
    ],
    [
      "Y",
      "ou</w>"
    ],
    [
      "Cyru",
      "s</w>"
    ],
    [
      "it",
      "y</w>"
    ],
    [
      "al",
      ",</w>"
    ],
    [
      "\u00e9",
      "e,</w>"
    ],
    [
      "f",
      "ul"
    ],
    [
      "c",
      "ar"
    ],
    [
      "se",
      "e</w>"
    ],
    [
      "g",
      "en"
    ],
    [
      "leur",
      "s</w>"
    ],
    [
      "as",
      "t"
    ],
    [
      "ong",
      "</w>"
    ],
    [
      "ma",
      "y</w>"
    ],
    [
      "ti",
      "me</w>"
    ],
    [
      "M",
      "on"
    ],
    [
      "c",
      "ar</w>"
    ],
    [
      "h",
      "ar"
    ],
    [
      "cont",
      "in"
    ],
    [
      "em",
      "ent,</w>"
    ],
    [
      "r",
      "an"
    ],
    [
      "g",
      "e</w>"
    ],
    [
      "d",
      "e,</w>"
    ],
    [
      "long",
      "</w>"
    ],
    [
      "e",
      "\u00fbt</w>"
    ],
    [
      "ac",
[...]
